the 2874
, 2187
. 2015
of 1430
in 1074
and 1015
a 967
to 751
is 662
( 370
was 370
) 368
as 329
by 307
on 300
for 284
with 281
&quot; 249
it 245
an 244
from 219
that 215
or 181
&apos;s 178
are 172
at 159
he 151
his 133
be 120
which 114
were 110
its 109
this 108
has 107
first 94
also 92
ing 86
one 82
not 78
other 78
have 76
been 68
most 67
they 66
after 65
ed 65
all 64
but 62
k@@ 62
two 62
their 61
had 60
her 60
into 60
some 59
in@@ 57
may 57
-@@ 55
: 54
d@@ 54
known 53
she 53
used 53
c@@ 51
city 51
name 51
united 51
world 51
can 50
states 50
g@@ 49
when 49
than 48
ar@@ 47
es 47
l@@ 47
- 46
american 46
between 46
more 46
who 46
over 45
1 43
f@@ 43
many 43
about 42
e@@ 42
2 41
county 41
during 41
m@@ 41
s 41
b@@ 40
born 40
new 40
o@@ 40
often 40
only 40
there 40
war 40
/ 39
er 39
h@@ 39
hurricane 39
i 39
since 39
; 38
area 38
became 38
part 38
series 38
such 38
ation 37
district 37
n@@ 37
p@@ 37
y 37
a@@ 36
o 36
state 36
al@@ 35
music 35
school 35
us 35
early 34
3 33
before 33
con@@ 33
ers 33
number 33
time 33
town 33
while 33
years 33
&apos; 32
al 32
ch@@ 32
e 32
en@@ 32
i@@ 32
north 32
south 32
year 32
ated 31
being 31
em@@ 31
er@@ 31
however 31
people 31
region 31
called 30
history 30
king 30
land 30
t 30
until 30
use 30
di@@ 29
el@@ 29
end 29
including 29
large 29
later 29
out 29
re@@ 29
several 29
would 29
ad@@ 28
c 28
de 28
german 28
him 28
made 28
well 28
– 28
7 27
dis@@ 27
film 27
following 27
then 27
ab@@ 26
at@@ 26
band 26
century 26
ent 26
national 26
or@@ 26
pl@@ 26
species 26
storm 26
ted 26
west 26
4 25
ac@@ 25
as@@ 25
august 25
co@@ 25
east 25
it@@ 25
system 25
these 25
water 25
an@@ 24
ate 24
government 24
ma@@ 24
pre@@ 24
term 24
three 24
through 24
under 24
where 24
20 23
8 23
album 23
am@@ 23
both 23
de@@ 23
high 23
july 23
june 23
km 23
ne@@ 23
near 23
river 23
son 23
although 22
began 22
bl@@ 22
december 22
discovered 22
found 22
ic 22
main 22
no 22
september 22
times 22
tropical 22
up 22
western 22
% 21
4@@ 21
age 21
be@@ 21
et@@ 21
game 21
ia 21
ic@@ 21
j@@ 21
led 21
mar@@ 21
march 21
now 21
place 21
season 21
team 21
took 21
2006 20
2007 20
5 20
capital 20
d 20
english 20
france 20
im@@ 20
ist 20
le@@ 20
ly 20
named 20
on@@ 20
per@@ 20
president 20
rock 20
small 20
so 20
very 20
word 20
work 20
30 19
6 19
against 19
another 19
any 19
based 19
central 19
en 19
established 19
ex@@ 19
g 19
germany 19
group 19
gu@@ 19
li@@ 19
mo@@ 19
modern 19
p 19
released 19
show 19
station 19
2008 18
around 18
ations 18
car@@ 18
different 18
due 18
ec@@ 18
ed@@ 18
family 18
football 18
former 18
general 18
great 18
ha@@ 18
inter@@ 18
m 18
op@@ 18
par@@ 18
po@@ 18
population 18
pro@@ 18
province 18
published 18
same 18
second 18
un@@ 18
university 18
12 17
16@@ 17
2003 17
als 17
april 17
because 17
considered 17
ent@@ 17
february 17
four 17
french 17
home 17
if 17
k 17
low 17
members 17
n 17
november 17
orchestra 17
played 17
still 17
using 17
&amp; 16
10 16
17@@ 16
1998 16
2005 16
6@@ 16
ally 16
ates 16
do 16
el 16
england 16
form 16
games 16
h 16
ian 16
ical 16
include 16
is@@ 16
island 16
ity 16
last 16
life 16
line 16
lo@@ 16
located 16
man@@ 16
million 16
october 16
others 16
own 16
public 16
roman 16
s. 16
what 16
will 16
14 15
16 15
9 15
able 15
ap@@ 15
back 15
book 15
british 15
cl@@ 15
common 15
developed 15
es@@ 15
f 15
formed 15
given 15
ine 15
like 15
long 15
member 15
mon@@ 15
much 15
novel 15
off 15
ol@@ 15
original 15
period 15
possible 15
s@@ 15
v 15
white 15
— 15
2002 14
22 14
23 14
3@@ 14
across 14
appeared 14
arms 14
ating 14
author 14
become 14
color 14
country 14
created 14
currently 14
day 14
dec@@ 14
development 14
districts 14
division 14
do@@ 14
ea@@ 14
ence 14
est 14
her@@ 14
key 14
l 14
language 14
largest 14
league 14
man 14
men 14
municipality 14
ot@@ 14
pa@@ 14
sea 14
similar 14
single 14
story 14
television 14
th 14
them 14
third 14
title 14
usually 14
way 14
won 14
wrestling 14
1997 13
1@@ 13
2@@ 13
7@@ 13
among 13
ance 13
australian 13
bar@@ 13
best 13
black 13
computer 13
does 13
each 13
ely 13
especially 13
fire 13
for@@ 13
human 13
ies 13
international 13
james 13
january 13
larger 13
left 13
light 13
list 13
major 13
min@@ 13
moved 13
night 13
ous 13
ph@@ 13
play 13
se 13
ting 13
together 13
top 13
ts 13
u 13
u@@ 13
um 13
within 13
york 13
0 12
11 12
12@@ 12
18 12
1994 12
2001 12
40 12
africa 12
ant 12
ar 12
atlantic 12
au@@ 12
b 12
bo@@ 12
company 12
continued 12
data 12
death 12
del@@ 12
ding 12
eastern 12
end@@ 12
ep@@ 12
europe 12
featured 12
five 12
fl@@ 12
food 12
gra@@ 12
hall 12
house 12
ice 12
ics 12
ig@@ 12
il@@ 12
important 12
ion 12
islands 12
jo@@ 12
law 12
less 12
lin@@ 12
london 12
make 12
non-@@ 12
northern 12
oc@@ 12
old 12
organization 12
out@@ 12
over@@ 12
parts 12
party 12
pe@@ 12
popular 12
pos@@ 12
produced 12
professional 12
republic 12
st 12
though 12
tion 12
written 12
x 12
00 11
0@@ 11
15 11
18@@ 11
2004 11
50 11
5@@ 11
90 11
9@@ 11
ag@@ 11
approximately 11
areas 11
asia 11
av@@ 11
ber@@ 11
bi@@ 11
body 11
center 11
championship 11
coast 11
col@@ 11
composed 11
council 11
countries 11
days 11
ded 11
did 11
either 11
empire 11
ev@@ 11
even 11
example 11
external 11
field 11
free 11
further 11
gen@@ 11
head 11
id@@ 11
ii 11
independent 11
india 11
john 11
le 11
links 11
local 11
middle 11
names 11
nor@@ 11
observed 11
official 11
order 11
park 11
person 11
project 11
rather 11
remained 11
road 11
see 11
side 11
standard 11
today 11
type 11
u. 11
union 11
ure 11
video 11
$ 10
1,@@ 10
13 10
17 10
19 10
24 10
28 10
29 10
8@@ 10
according 10
act 10
addition 10
administrative 10
again 10
ak@@ 10
america 10
announced 10
ary 10
away 10
built 10
china 10
church 10
club 10
commonly 10
consists 10
current 10
derives 10
designed 10
ds 10
ess@@ 10
est@@ 10
event 10
famous 10
indian 10
initially 10
int@@ 10
ke 10
making 10
mal@@ 10
mat@@ 10
match 10
ment 10
minister 10
movie 10
na@@ 10
natural 10
ons 10
originally 10
pacific 10
plants 10
position 10
power 10
ry 10
science 10
se@@ 10
service 10
set 10
seven 10
sh@@ 10
southern 10
success 10
support 10
surface 10
t@@ 10
uk 10
units 10
various 10
ve 10
works 10
° 10
&apos;@@ 9
,000 9
13@@ 9
15@@ 9
1967 9
1995 9
1999 9
26 9
along 9
ancient 9
ants 9
army 9
art 9
awards 9
bal@@ 9
battle 9
beginning 9
below 9
bro@@ 9
co-@@ 9
code 9
composer 9
cor@@ 9
cyclone 9
dra@@ 9
e-@@ 9
ell@@ 9
european 9
fame 9
fantasy 9
far 9
founded 9
ga@@ 9
ge 9
generally 9
har@@ 9
held 9
ial 9
il 9
includes 9
ited 9
ized 9
late 9
lines 9
live 9
location 9
mc@@ 9
media 9
metal 9
native 9
next 9
om@@ 9
open 9
oper@@ 9
ou@@ 9
ow@@ 9
per 9
point 9
pol@@ 9
police 9
political 9
previous 9
primarily 9
radio 9
range 9
received 9
red 9
referred 9
saint 9
san 9
size 9
software 9
sometimes 9
space 9
street 9
ter 9
terms 9
theory 9
those 9
throughout 9
v@@ 9
went 9
wwe 9
you 9
young 9
1961 8
19@@ 8
2000 8
21 8
25 8
27 8
above 8
ad 8
all@@ 8
almost 8
ane 8
ard 8
associated 8
association 8
ator 8
att@@ 8
australia 8
available 8
bank 8
blue 8
br@@ 8
bra@@ 8
business 8
ca@@ 8
california 8
career 8
case 8
ch 8
character 8
charles 8
children 8
cities 8
coat 8
combined 8
core 8
could 8
cover 8
cre@@ 8
culture 8
cut 8
debut 8
defeated 8
des 8
died 8
dog 8
elements 8
ens 8
ered 8
extratropical 8
ey 8
fer@@ 8
few 8
fort 8
ge@@ 8
greater 8
greek 8
half 8
having 8
higher 8
ho@@ 8
hon@@ 8
how 8
ill@@ 8
ings 8
ir@@ 8
ish 8
ism 8
ist@@ 8
itions 8
iz@@ 8
j. 8
just 8
kingdom 8
kn@@ 8
ko@@ 8
la 8
lake 8
land@@ 8
ler 8
mag@@ 8
mainly 8
me@@ 8
met@@ 8
method 8
miles 8
months 8
mu@@ 8
never 8
ni@@ 8
nic@@ 8
ning 8
numerous 8
office 8
page 8
pen@@ 8
philharmonic 8
player 8
queen 8
r. 8
ra@@ 8
record 8
references 8
release 8
reported 8
royal 8
russia 8
scott 8
short 8
singer 8
sp@@ 8
st@@ 8
status 8
symphony 8
systems 8
thus 8
tions 8
tive 8
traditional 8
version 8
w@@ 8
wide 8
worldwide 8
y@@ 8
10@@ 7
1973 7
1974 7
additional 7
af@@ 7
air 7
anc@@ 7
and@@ 7
ann@@ 7
anti@@ 7
appear 7
armenian 7
asteroids 7
attack 7
avoid 7
awarded 7
baseball 7
basis 7
bill 7
blues 7
border 7
bridge 7
bur@@ 7
came 7
cast@@ 7
catholic 7
caused 7
ce 7
chocolate 7
christian 7
civil 7
class 7
com@@ 7
completed 7
composition 7
cont@@ 7
control 7
d-@@ 7
damage 7
department 7
directly 7
director 7
disease 7
divided 7
down 7
dr@@ 7
du@@ 7
earned 7
earth 7
ecw 7
edge 7
edly 7
effects 7
eg@@ 7
electric 7
ell 7
els 7
ended 7
energy 7
eng@@ 7
ets 7
exist 7
fac@@ 7
festival 7
florida 7
forms 7
fourth 7
george 7
ger@@ 7
golden 7
good 7
gr@@ 7
gro@@ 7
hel@@ 7
henry 7
himself 7
hor@@ 7
hot 7
iii 7
images 7
inducted 7
ins 7
internet 7
involved 7
ip@@ 7
italian 7
ks 7
la@@ 7
lands 7
largely 7
lea@@ 7
leader 7
little 7
loc@@ 7
mass 7
meaning 7
mi 7
michael 7
moon 7
mor@@ 7
mother 7
multiple 7
nature 7
nearby 7
network 7
nine 7
no@@ 7
notably 7
ocean 7
officially 7
organized 7
our 7
pakistan 7
pat@@ 7
paul 7
performed 7
pic@@ 7
pr@@ 7
pressure 7
pri@@ 7
products 7
psychedelic 7
pu@@ 7
railway 7
rate 7
records 7
refer 7
related 7
responsible 7
richard 7
rights 7
ring 7
ro@@ 7
satellite 7
served 7
services 7
signal 7
six 7
smaller 7
solar 7
song 7
sound 7
source 7
spanish 7
stage 7
strong 7
sts 7
style 7
switzerland 7
ten 7
territories 7
th@@ 7
themselves 7
trade 7
user 7
valley 7
van 7
w 7
web 7
wife 7
william 7
win 7
wrote 7
z 7
# 6
,@@ 6
0s 6
14@@ 6
191@@ 6
1941 6
1960s 6
1969 6
1970 6
1987 6
1st 6
2,000 6
20@@ 6
31 6
5.@@ 6
56 6
65 6
academic 6
academy 6
ach@@ 6
action 6
active 6
actor 6
acts 6
aff@@ 6
african 6
ages 6
alabama 6
always 6
am 6
angle 6
ans 6
appearance 6
arch@@ 6
aries 6
arts 6
astronomers 6
ative 6
ats 6
attended 6
base 6
bbc 6
becoming 6
ben@@ 6
berlin 6
better 6
beverage 6
big 6
birth 6
ble 6
boston 6
bot@@ 6
boxing 6
branch 6
c. 6
canton 6
cap@@ 6
cape 6
card 6
category 6
cent@@ 6
centre 6
chris 6
churches 6
classical 6
cold 6
college 6
come 6
comedy 6
commercial 6
committee 6
commune 6
community 6
comp@@ 6
completely 6
compounds 6
conv@@ 6
cr@@ 6
creating 6
cut@@ 6
dan@@ 6
david 6
dem@@ 6
den@@ 6
depression 6
der 6
derived 6
designated 6
designation 6
despite 6
distinguished 6
dna 6
done 6
dy 6
e. 6
ear@@ 6
effect 6
elected 6
election 6
ending 6
ens@@ 6
entertainment 6
entire 6
ents 6
estimated 6
events 6
eventually 6
father 6
feature 6
fictional 6
fin@@ 6
final 6
fish 6
forces 6
ford 6
form@@ 6
formation 6
fr@@ 6
francisco 6
front 6
ful 6
gar@@ 6
gave 6
gh@@ 6
go@@ 6
god 6
going 6
gouda 6
gre@@ 6
growing 6
h. 6
heart 6
help 6
hour 6
ids 6
ied 6
ile 6
included 6
income 6
indicate 6
information 6
io 6
ireland 6
ised 6
ities 6
iting 6
iv@@ 6
jesus 6
ju@@ 6
ker@@ 6
ki 6
lam@@ 6
latin 6
leading 6
leg@@ 6
len@@ 6
linux 6
long@@ 6
lost 6
lu@@ 6
m-@@ 6
mario 6
martin 6
matter 6
maximum 6
me 6
means 6
medical 6
mer@@ 6
merging 6
mexico 6
mi@@ 6
mice 6
might 6
mostly 6
mountain 6
ms 6
musical 6
must 6
nations 6
ness 6
northeast 6
ob@@ 6
occurred 6
od@@ 6
off@@ 6
offered 6
officers 6
once 6
opera 6
organic 6
os 6
outer 6
pal@@ 6
particularly 6
post 6
pot@@ 6
pp@@ 6
pre-@@ 6
premiered 6
primary 6
product 6
production 6
programs 6
provide 6
ps 6
qu@@ 6
r 6
r@@ 6
rail 6
recorded 6
refers 6
remains 6
required 6
result 6
right 6
role 6
rule 6
said 6
seat 6
seen 6
sent 6
severe 6
ship 6
ships 6
shortly 6
shows 6
simply 6
situated 6
sol@@ 6
songs 6
special 6
square 6
stallone 6
starred 6
stars 6
storms 6
strength 6
studio 6
study 6
sub@@ 6
subsequently 6
summer 6
swiss 6
table 6
take 6
taken 6
telescope 6
thought 6
total 6
towards 6
trees 6
ty 6
types 6
under@@ 6
upper 6
ur@@ 6
urban 6
val@@ 6
virtually 6
wales 6
winds 6
wood 6
working 6
ying 6
z@@ 6
zero 6
² 6
1.@@ 5
186@@ 5
187@@ 5
189@@ 5
1911 5
1970s 5
1977 5
1979 5
1980s 5
1986 5
1990 5
1990s 5
1992 5
19th 5
3.@@ 5
37 5
60 5
600 5
85 5
95 5
administration 5
aged 5
air@@ 5
alexander 5
alized 5
ama 5
ang@@ 5
animals 5
animated 5
ant@@ 5
anti-@@ 5
appears 5
archive 5
armenia 5
ash@@ 5
ass@@ 5
asteroid 5
ational 5
atomic 5
ators 5
authority 5
beatles 5
bon@@ 5
boy 5
britannica 5
broad@@ 5
brought 5
building 5
cal@@ 5
can@@ 5
car 5
ce@@ 5
certain 5
chan@@ 5
char@@ 5
circulation 5
citizens 5
clar@@ 5
close 5
cm 5
co 5
colony 5
comes 5
coming 5
comm@@ 5
complete 5
concerts 5
conditions 5
conference 5
congress 5
consisting 5
constructed 5
contains 5
contemporary 5
contrac@@ 5
cost 5
cou@@ 5
councils 5
create 5
cup 5
date 5
dates 5
daughter 5
decided 5
def@@ 5
defin@@ 5
des@@ 5
described 5
designs 5
det@@ 5
dic 5
dic@@ 5
disney 5
documents 5
dri@@ 5
economic 5
economy 5
ected 5
en-@@ 5
ena 5
enc@@ 5
encryption 5
enti@@ 5
entirely 5
equ@@ 5
equal 5
establishment 5
ested 5
et 5
evolved 5
expanded 5
extra@@ 5
extreme 5
ey@@ 5
face 5
far@@ 5
fe@@ 5
features 5
feet 5
fellow 5
females 5
films 5
flag 5
force 5
fre@@ 5
fresh 5
gained 5
gal@@ 5
gardens 5
ged 5
gener@@ 5
genre 5
geography 5
gil@@ 5
give 5
gn@@ 5
gram@@ 5
green 5
grow 5
growth 5
gun 5
ham 5
hand 5
he@@ 5
health 5
high-@@ 5
historic 5
hit 5
holy 5
hum@@ 5
hun@@ 5
ible 5
ically 5
id 5
importance 5
individual 5
individuals 5
ines 5
ing@@ 5
inhabitants 5
init@@ 5
inner 5
inst@@ 5
introduced 5
ire 5
iron 5
islam 5
iso 5
ison 5
ists 5
italy 5
ition 5
itself 5
ium 5
japanese 5
kar@@ 5
ked 5
ker 5
komodo 5
ku@@ 5
kurt 5
lack 5
lar@@ 5
lead 5
legs 5
lem@@ 5
length 5
les 5
les@@ 5
level 5
living 5
ma 5
mammals 5
meth@@ 5
micro@@ 5
military 5
minute 5
mission 5
movement 5
mph 5
mun@@ 5
nar@@ 5
ne 5
necessary 5
netherlands 5
new@@ 5
northwestern 5
nov@@ 5
nu@@ 5
occur 5
ological 5
organ@@ 5
ov@@ 5
ox@@ 5
pages 5
parallel 5
paris 5
parliament 5
passes 5
pec@@ 5
pet@@ 5
pi@@ 5
pit@@ 5
planet 5
platform 5
play@@ 5
players 5
playing 5
pool 5
por@@ 5
port 5
portrayed 5
pou@@ 5
pradesh 5
press 5
prime 5
private 5
prize 5
probably 5
proc@@ 5
process 5
prof@@ 5
program 5
prot@@ 5
protocol 5
punk 5
quantum 5
que 5
race 5
raised 5
re 5
regarded 5
regular 5
relatively 5
rivers 5
ro 5
robert 5
say 5
sc@@ 5
schools 5
scientific 5
ser@@ 5
serves 5
ses 5
shared 5
sheppard 5
should 5
si@@ 5
sides 5
simple 5
site 5
social 5
solid 5
somewhat 5
soon 5
sport 5
sports 5
stadium 5
staff 5
stated 5
stations 5
structure 5
su@@ 5
subsequent 5
suspended 5
sweden 5
tag 5
tains 5
taking 5
teams 5
temple 5
termed 5
territory 5
texas 5
ti@@ 5
tic 5
tip 5
to@@ 5
tornado 5
towns 5
track 5
traditionally 5
ture 5
typically 5
ual 5
ul@@ 5
un 5
unit 5
universe 5
upon 5
us@@ 5
uses 5
victoria 5
view 5
village 5
ving 5
wanted 5
washington 5
whom 5
widely 5
winning 5
without 5
woman 5
writers 5
wwf 5
x@@ 5
yang 5
your 5
+ 4
.@@ 4
0,000 4
11@@ 4
12th 4
1850 4
1919 4
1938 4
1944 4
1945 4
1947 4
194@@ 4
1954 4
1962 4
1968 4
1976 4
1980 4
1985 4
1993 4
1996 4
200 4
2009 4
300 4
33@@ 4
500 4
51 4
52 4
64 4
76 4
80 4
98 4
9th 4
a. 4
ability 4
absorbed 4
ac 4
acc@@ 4
ach 4
activities 4
actors 4
actually 4
ade 4
adjacent 4
admir@@ 4
adopted 4
adv@@ 4
afternoon 4
aging 4
agriculture 4
aid 4
albums 4
already 4
ang 4
anim@@ 4
anno 4
appearing 4
apple 4
appointed 4
appro@@ 4
appropriate 4
architecture 4
arm@@ 4
armed 4
art@@ 4
article 4
artist 4
ased 4
ash 4
ation@@ 4
attacked 4
au 4
audio 4
aw@@ 4
award 4
ax@@ 4
ay 4
ays 4
ba 4
ba@@ 4
background 4
bad@@ 4
bas@@ 4
basin 4
bat@@ 4
bc 4
beach 4
believed 4
bell 4
benghazi 4
bet@@ 4
bible 4
bill@@ 4
biology 4
bird 4
boosh 4
bor@@ 4
bran@@ 4
bs 4
bu@@ 4
buildings 4
bul@@ 4
businesses 4
by@@ 4
cam@@ 4
camp@@ 4
canada 4
canadian 4
carolina 4
carried 4
carter 4
cathedral 4
causing 4
cave 4
cell 4
centuries 4
cer@@ 4
champion 4
championships 4
change 4
changed 4
characteristics 4
che@@ 4
chemical 4
ches 4
chief@@ 4
chinese 4
ching 4
chosen 4
christmas 4
closed 4
codes 4
colors 4
combat 4
comman@@ 4
commod@@ 4
compan@@ 4
competition 4
complex 4
computers 4
conductor 4
conservation 4
consider@@ 4
construction 4
contact 4
containing 4
continu@@ 4
continue 4
contrast 4
controlled 4
convection 4
convened 4
convention 4
cooking 4
cop@@ 4
count 4
covered 4
cricket 4
cross 4
crossed 4
cu@@ 4
cul@@ 4
cultiv@@ 4
cultural 4
cur@@ 4
da@@ 4
dam@@ 4
debuted 4
defense 4
defined 4
democratic 4
depic@@ 4
description 4
design 4
destroyed 4
determin@@ 4
dev@@ 4
develop 4
developing 4
diag@@ 4
diameter 4
digital 4
direct 4
discovery 4
dissipated 4
distance 4
distinc@@ 4
distribution 4
document 4
dogs 4
don 4
drawing 4
du 4
ean 4
easily 4
ect 4
edo 4
education 4
eff@@ 4
effective 4
electr@@ 4
element 4
elizabeth 4
ences 4
ency 4
enn@@ 4
enough 4
ently 4
eous 4
era 4
ess 4
etc 4
eth@@ 4
ethnic 4
etymology 4
eus 4
every 4
exchange 4
expected 4
ext@@ 4
extending 4
extensive 4
f-@@ 4
fa@@ 4
facility 4
fact 4
farming 4
fastest 4
fields 4
fight 4
figure 4
fil@@ 4
filmed 4
finally 4
financial 4
finished 4
flora 4
florence 4
flow 4
flying 4
folk 4
follow 4
followed 4
formerly 4
fossils 4
foundation 4
fran@@ 4
frequently 4
fu@@ 4
fun@@ 4
functions 4
gam@@ 4
gas 4
gas@@ 4
gen 4
ger 4
gi@@ 4
go 4
goaltender 4
gold 4
gold@@ 4
greatest 4
grew 4
gri@@ 4
groups 4
habitat 4
hawaii 4
hea@@ 4
hemisphere 4
heritage 4
hi@@ 4
high@@ 4
hil@@ 4
hill 4
hockey 4
hol@@ 4
hong 4
hop@@ 4
hundred 4
hy@@ 4
hydro@@ 4
ich 4
ide 4
idea 4
ier 4
if@@ 4
igh@@ 4
ill 4
ils 4
image 4
imperial 4
inal 4
inc@@ 4
inches 4
indi@@ 4
industry 4
inf@@ 4
influence 4
inhab@@ 4
instead 4
inv@@ 4
ions 4
ious 4
ished 4
issue 4
issues 4
ives 4
izes 4
ja 4
japan 4
jer@@ 4
jobs 4
joined 4
k. 4
ka@@ 4
kansas 4
kill@@ 4
king@@ 4
knowledge 4
kong 4
lakes 4
lan@@ 4
landfall 4
legal 4
letter 4
lie 4
lies 4
lif@@ 4
limited 4
lit@@ 4
lizard 4
log@@ 4
longer 4
loo@@ 4
louis 4
love 4
lowest 4
mac@@ 4
magazine 4
maiden 4
mail 4
mainstream 4
males 4
manchester 4
maps 4
mark 4
marriage 4
massive 4
matches 4
mathematics 4
max 4
meant 4
medieval 4
mediterranean 4
mend@@ 4
merged 4
met 4
mic@@ 4
minist@@ 4
mis@@ 4
miss@@ 4
mississippi 4
mit 4
mit@@ 4
mobile 4
mot@@ 4
mountains 4
municipalities 4
mus@@ 4
museum 4
muslims 4
nam@@ 4
nav@@ 4
nearly 4
need 4
ner 4
ner@@ 4
nervous 4
neutr@@ 4
ney 4
nobel 4
northwest 4
norwegian 4
nose 4
not@@ 4
noted 4
novels 4
object 4
obtains 4
onal 4
online 4
operated 4
orbit 4
ordinary 4
ored 4
origins 4
ors 4
our@@ 4
ous@@ 4
ously 4
outbreak 4
outside 4
package 4
particular 4
parties 4
pass 4
pawn 4
pe 4
perceived 4
performance 4
perhaps 4
phone 4
physics 4
places 4
plane 4
plans 4
platforms 4
points 4
poland 4
poles 4
politician 4
pon@@ 4
pop 4
popularity 4
port@@ 4
possibly 4
pract@@ 4
predominantly 4
prepar@@ 4
present 4
princess 4
principal 4
prison 4
problems 4
processing 4
promoting 4
pt@@ 4
public@@ 4
puerto 4
pump 4
put 4
raid 4
rapidly 4
reached 4
recognized 4
reduced 4
reference 4
rel@@ 4
relations 4
relationship 4
religion 4
repair 4
reports 4
represents 4
res@@ 4
resources 4
respon@@ 4
retired 4
return 4
returned 4
ri@@ 4
ric 4
rick 4
risc 4
rise 4
room 4
ross 4
roughly 4
rounds 4
rural 4
sacred 4
santa 4
saturn 4
saw 4
scandinavia 4
sch@@ 4
seal 4
secondary 4
secretary 4
security 4
selling 4
sem@@ 4
senior 4
serve 4
serving 4
showed 4
signed 4
silver 4
simon 4
sing 4
singles 4
sites 4
sixth 4
snow 4
society 4
sources 4
southeast 4
southeastern 4
southwest 4
soviet 4
spoken 4
star 4
started 4
starting 4
steel 4
stein 4
stone 4
stories 4
stuart 4
students 4
styles 4
subtropical 4
suggested 4
sun 4
symbol 4
ta 4
tained 4
taiwan 4
talent 4
taylor 4
test 4
thal 4
ths 4
tively 4
tom 4
ton 4
tour 4
tra@@ 4
train 4
transactions 4
transferred 4
tri@@ 4
tributary 4
true 4
tu@@ 4
tures 4
tv 4
ular 4
um@@ 4
universal 4
useful 4
ust 4
ut@@ 4
vari@@ 4
ved 4
ver@@ 4
versions 4
via 4
visible 4
von 4
voyager 4
waters 4
website 4
weight 4
wheat 4
whedon 4
whose 4
wikipedia 4
wilma 4
wilson 4
wind 4
winter 4
women 4
words 4
worked 4
writing 4
0.@@ 3
00@@ 3
00s 3
08 3
1.5 3
164@@ 3
166 3
16th 3
183@@ 3
184@@ 3
1856 3
1887 3
1904 3
1914 3
1936 3
1937 3
1946 3
1950 3
1952 3
1953 3
1955 3
1957 3
1963 3
1966 3
1971 3
1972 3
1975 3
1982 3
1983 3
1988 3
1989 3
1991 3
2.@@ 3
200,000 3
20th 3
21st 3
25@@ 3
3,@@ 3
3166 3
36 3
4,@@ 3
42 3
45 3
5,@@ 3
54 3
59 3
6,000 3
62 3
700 3
78 3
87 3
93 3
ab 3
ably 3
abol@@ 3
abolition 3
abor@@ 3
absol@@ 3
accessible 3
achieved 3
acqu@@ 3
acquired 3
actions 3
acy 3
adams 3
added 3
aded 3
ades 3
adi@@ 3
adulthood 3
advanced 3
aerial 3
afterwards 3
agnes 3
ago 3
agon@@ 3
agreement 3
aircraft 3
albert 3
alfred 3
aling 3
alist 3
alleg@@ 3
alliance 3
allow 3
alpha 3
alpha@@ 3
alphabet 3
alternat@@ 3
amateur 3
ambo@@ 3
amed 3
amount 3
analog 3
analysis 3
ances 3
ancing 3
andrew 3
anger 3
angles 3
anguidae 3
angular 3
ani 3
animal 3
ann 3
anne 3
annually 3
antonio 3
appl@@ 3
applications 3
applied 3
approval 3
archipelago 3
arrives 3
ars 3
artemis 3
arti@@ 3
articles 3
asc@@ 3
aser 3
ases 3
ass 3
assembly 3
assisted 3
associ@@ 3
assum@@ 3
ater 3
atic 3
atta@@ 3
attacks 3
attempt 3
attention 3
attractions 3
attributed 3
audiences 3
austria 3
austrian 3
auth@@ 3
authors 3
auto@@ 3
aviation 3
avo@@ 3
ay@@ 3
ayed 3
az@@ 3
b. 3
baby 3
backing 3
ball 3
ban 3
ban@@ 3
bapt@@ 3
bar 3
bard 3
basic 3
bass 3
batt@@ 3
battalion 3
bay 3
bay@@ 3
bce 3
bedroom 3
begins 3
belgian 3
belong 3
belt 3
ben 3
ber 3
bert 3
binary 3
biography 3
bir@@ 3
bit 3
block 3
blood 3
bo 3
boat 3
bol@@ 3
bom@@ 3
bonham 3
booker 3
borough 3
bottom 3
boundary 3
bourne 3
bow 3
bowl 3
box 3
boys 3
brand 3
break@@ 3
breakdown 3
breaking 3
bri@@ 3
brian 3
bright 3
britain 3
broadcast 3
broke 3
bru@@ 3
buffalo 3
bulldog 3
bun@@ 3
burn 3
bus 3
bush 3
but@@ 3
byzantine 3
cabinet 3
calculated 3
calendar 3
call 3
cameron 3
cancer 3
cant@@ 3
captain 3
carbon 3
caribbean 3
casting 3
cau@@ 3
celestus 3
cello 3
census 3
chain 3
chamber 3
chancellor 3
changes 3
chapters 3
characters 3
charlotte 3
chart 3
charts 3
ched 3
chem@@ 3
chess 3
chief 3
cho@@ 3
choir 3
choral 3
christianity 3
christians 3
chronic@@ 3
chronicles 3
cin@@ 3
cisc 3
cla@@ 3
claims 3
classi@@ 3
cle@@ 3
clear 3
clinton 3
clos@@ 3
coach 3
coal 3
coined 3
collectiv@@ 3
colonel 3
color@@ 3
command 3
commemor@@ 3
commun@@ 3
communic@@ 3
communities 3
compar@@ 3
compared 3
complet@@ 3
compos@@ 3
concentrated 3
concep@@ 3
concer@@ 3
concerned 3
concert 3
conf@@ 3
congre@@ 3
connected 3
connection 3
conqu@@ 3
consec@@ 3
consequently 3
consisted 3
consistent 3
const@@ 3
constantinople 3
constra@@ 3
contained 3
contest 3
continents 3
contributions 3
contro@@ 3
cool 3
corporation 3
coun@@ 3
counties 3
coupled 3
court 3
covers 3
crash 3
credited 3
crow@@ 3
crowd 3
curr@@ 3
cyber-@@ 3
cycle 3
da 3
daily 3
dakota 3
dam 3
dance 3
daniel 3
danish 3
dar@@ 3
dark 3
deal 3
deaths 3
debate 3
decline 3
decre@@ 3
degree 3
demand 3
dep@@ 3
departments 3
depending 3
der@@ 3
ders 3
desc@@ 3
describe 3
design@@ 3
deta@@ 3
determined 3
develop@@ 3
devoted 3
diff@@ 3
dig@@ 3
digits 3
din@@ 3
directed 3
direction 3
disc@@ 3
disci@@ 3
disputed 3
distributed 3
distributions 3
dividing 3
doctor 3
dol@@ 3
dom@@ 3
dominant 3
dominated 3
don@@ 3
donald 3
dor@@ 3
double 3
down@@ 3
download 3
dragon 3
dram@@ 3
dramatic 3
dre@@ 3
drug 3
dry 3
dundee 3
dur@@ 3
dutch 3
dvd 3
ea 3
ean@@ 3
ear 3
earlier 3
ease 3
eck 3
edition 3
eds 3
edward 3
een 3
eggs 3
egypt 3
eight 3
eighth 3
ek 3
electrical 3
electrification 3
elevation 3
eleven 3
elling 3
ement 3
employ@@ 3
enced 3
ender 3
ends 3
engaged 3
enter 3
entered 3
ential 3
entially 3
entrance 3
entries 3
eo 3
epic 3
episode 3
erg@@ 3
esch@@ 3
ese 3
essing 3
essjay 3
establishing 3
ests 3
eter@@ 3
eu@@ 3
ever 3
ever@@ 3
examples 3
executed 3
executive 3
expl@@ 3
explains 3
expressed 3
extend 3
extensively 3
eye 3
facil@@ 3
factory 3
facts 3
fal@@ 3
fall 3
fans 3
fast 3
fat@@ 3
favorable 3
fc 3
federal 3
federation 3
feel 3
fencing 3
ff 3
ff@@ 3
fi@@ 3
fic@@ 3
fication 3
fiction 3
fifa 3
fine 3
fir@@ 3
flat 3
fleet 3
flic@@ 3
flo@@ 3
flu@@ 3
focused 3
fol@@ 3
footballer 3
forced 3
forec@@ 3
foreign 3
format 3
found@@ 3
franchise 3
frank 3
franklin 3
frederick 3
friday 3
friend 3
fted 3
fully 3
fungi 3
furby 3
g. 3
gang 3
garden 3
gate 3
gear 3
genres 3
genus 3
georgia 3
get 3
gg@@ 3
gir@@ 3
global 3
goods 3
gor@@ 3
gordon 3
got 3
gothic 3
governorate 3
gradually 3
gran@@ 3
gravity 3
green@@ 3
ground 3
ground@@ 3
grounds 3
grove 3
grows 3
guns 3
hab@@ 3
hair 3
hal@@ 3
ham@@ 3
han 3
har 3
hardy 3
headquarters 3
hearts 3
heavy 3
heinrich 3
helene 3
henderson 3
highest 3
hindenburg 3
hip 3
hired 3
histor@@ 3
hits 3
hold 3
holds 3
holid@@ 3
hom@@ 3
honduras 3
honor 3
hospital 3
hot@@ 3
hours 3
houses 3
hu@@ 3
hubble 3
hughes 3
hul@@ 3
humans 3
hur@@ 3
husband 3
hypo@@ 3
i. 3
ib@@ 3
iber@@ 3
ica 3
iding 3
ight 3
ign@@ 3
ilia 3
iling 3
illinois 3
imag@@ 3
immediate 3
impac@@ 3
inary 3
incorporates 3
ind 3
independence 3
indicates 3
industrial 3
ined 3
influ@@ 3
influences 3
inger 3
injury 3
ink 3
installment 3
instant 3
institutions 3
instruc@@ 3
integr@@ 3
intended 3
interest 3
internally 3
interrupt 3
introducing 3
introduction 3
invasion 3
invented 3
ion@@ 3
ired 3
irish 3
iron@@ 3
isation 3
israel 3
issued 3
istic 3
ite 3
itive 3
itude 3
ive 3
ix 3
ize 3
jack 3
jackson 3
jacques 3
jan@@ 3
jar@@ 3
jews 3
jim 3
joh@@ 3
jones 3
jud@@ 3
judge 3
jupiter 3
kan@@ 3
karl 3
kes 3
ket 3
keys 3
ki@@ 3
kings 3
languages 3
lark 3
lasted 3
lat@@ 3
latter 3
laun@@ 3
launched 3
laur@@ 3
lay 3
leads 3
leave 3
leaving 3
legacy 3
lev@@ 3
levels 3
ley 3
li 3
libr@@ 3
libyan 3
license 3
lisa 3
listed 3
lived 3
liver 3
lives 3
lonely 3
longevity 3
lord 3
lords 3
los 3
ls 3
ly-@@ 3
ly@@ 3
lyn@@ 3
mac 3
machine 3
macro 3
magn@@ 3
main@@ 3
maintained 3
majority 3
makes 3
managed 3
management 3
mann 3
marie 3
marked 3
markets 3
married 3
martial 3
marx@@ 3
mary 3
matrix 3
mechan@@ 3
mechanical 3
mechanics 3
meet 3
melodifestivalen 3
mem@@ 3
membership 3
men@@ 3
metallic 3
metres 3
metropolitan 3
mid@@ 3
mig@@ 3
milk 3
minimal 3
minnie 3
minor 3
mm 3
mod@@ 3
mode 3
moderate 3
modified 3
molecules 3
monastery 3
montreal 3
moscow 3
mosques 3
motor 3
motto 3
mountainous 3
move 3
moving 3
mul@@ 3
multi-@@ 3
murder 3
mus 3
musician 3
mutiny 3
métis 3
naming 3
nation 3
naz@@ 3
nazi 3
neck 3
neptune 3
net@@ 3
neuro@@ 3
neutral 3
nhl 3
no. 3
normal 3
normally 3
note 3
nouakchott 3
ns 3
oak 3
observer 3
ocks 3
ods 3
ohio 3
oil 3
older 3
oliver 3
ology 3
omet@@ 3
oms 3
ong@@ 3
onian 3
onic 3
oo@@ 3
op 3
ope 3
opened 3
opportunity 3
opposite 3
orange 3
orated 3
orchestral 3
orders 3
ore 3
org@@ 3
organism 3
organisms 3
orial 3
origin@@ 3
originated 3
orson 3
ory 3
os@@ 3
ot 3
otic 3
ottoman 3
ow 3
owned 3
owners 3
ows 3
pack@@ 3
pan@@ 3
pap@@ 3
parent 3
parish 3
part@@ 3
particip@@ 3
pas@@ 3
passeng@@ 3
past 3
path 3
patron 3
peak 3
pel@@ 3
performances 3
performing 3
peri@@ 3
pesos 3
peter 3
petrol 3
physical 3
pictures 3
pieces 3
pil@@ 3
pin@@ 3
pion@@ 3
pir@@ 3
pisa 3
placed 3
plains 3
plate 3
plato 3
ple 3
ples 3
polls 3
poor 3
populated 3
populous 3
possess 3
pow@@ 3
pped 3
predominant 3
pres@@ 3
present-day 3
preval@@ 3
previously 3
price 3
priest 3
primitive 3
principle 3
print 3
prior 3
priority 3
prisoners 3
prob@@ 3
probe 3
proclaimed 3
produce 3
producer 3
programm@@ 3
prominence 3
prominent 3
promotion 3
property 3
provided 3
provinces 3
provisional 3
psal@@ 3
psych@@ 3
pul@@ 3
pun@@ 3
pur@@ 3
purchased 3
purpose 3
purposes 3
q 3
quartet 3
rainfall 3
rank 3
rated 3
ratings 3
raw 3
reality 3
realm 3
rec@@ 3
receive 3
receiving 3
recently 3
reflecting 3
regiments 3
regularly 3
reichstag 3
reinforced 3
religious 3
relocated 3
remain 3
remnants 3
renaissance 3
renamed 3
repertoire 3
replaced 3
res 3
research 3
residence 3
resulted 3
resulting 3
rey 3
rico 3
risk 3
rocky 3
rome 3
rose 3
rotation 3
round 3
route 3
russian 3
sa 3
saddle 3
sailed 3
salamanders 3
sales 3
salon 3
satan 3
scale 3
scales 3
scene 3
scheme 3
scientists 3
score 3
search 3
secret 3
server 3
setting 3
settlement 3
seventh 3
sex 3
shadow 3
shallow 3
shown 3
sia 3
sign 3
signals 3
significantly 3
signs 3
silk 3
simplification 3
singing 3
sir 3
sitcom 3
smith 3
snakes 3
soccer 3
sold 3
solution 3
sonata 3
sou@@ 3
soy 3
spec@@ 3
specific 3
specul@@ 3
sq 3
ss 3
st. 3
stages 3
stanley 3
starring 3
start 3
stephen 3
stic 3
stick 3
sting 3
stock 3
stolen 3
strait 3
strategic 3
stri@@ 3
strikes 3
string 3
stripe 3
studios 3
subject 3
subjects 3
succeeded 3
successfully 3
suffering 3
sunday 3
super 3
super@@ 3
supreme 3
surgery 3
sw@@ 3
sydney 3
syn@@ 3
t-@@ 3
taining 3
tango 3
tank 3
tar 3
tax 3
te 3
tells 3
temperatures 3
temporary 3
ter@@ 3
tes 3
ther@@ 3
therefore 3
thing 3
thomas 3
thousands 3
throwing 3
tics 3
ties 3
tim 3
tional 3
titled 3
tod 3
too 3
tor 3
tors 3
township 3
tracking 3
traffic 3
trans@@ 3
transformed 3
translation 3
transmission 3
transport 3
tre@@ 3
trials 3
triple 3
tube 3
uc@@ 3
ue 3
ulties 3
unusual 3
usa 3
usage 3
usion 3
ute 3
vaihingen 3
variety 3
vehicles 3
velvet 3
vers@@ 3
ves 3
vi 3
vi@@ 3
videos 3
villages 3
ville 3
virginia 3
vision 3
vocals 3
voice 3
volcano 3
volume 3
voted 3
wakker 3
walk 3
walker 3
wall 3
ward 3
warner 3
warning 3
wayne 3
ways 3
wealthy 3
weather 3
week 3
whether 3
widespread 3
wild 3
worship 3
worth 3
writer 3
ya 3
yellow 3
yet 3
younger 3
ys 3
zes 3
zig 3
é 3
! 2
#@@ 2
&@@ 2
&apos;azur 2
&apos;t 2
-american 2
-du@@ 2
-like 2
-related 2
-speaking 2
-up 2
000 2
03 2
09 2
1,000 2
1,3@@ 2
100 2
1002 2
105 2
121 2
122 2
125 2
1395 2
13th 2
150 2
155939050@@ 2
1649 2
178 2
18,@@ 2
180@@ 2
1816 2
1817 2
1819 2
1824 2
1828 2
1836 2
1838 2
1847 2
1849 2
1855 2
1858 2
185@@ 2
1862 2
1868 2
1870 2
1871 2
1876 2
1889 2
188@@ 2
1897 2
1901 2
1902 2
1907 2
1909 2
1910 2
1917 2
1918 2
1920 2
1920s 2
1921 2
1930s 2
1932 2
1935 2
1939 2
193@@ 2
1942 2
1949 2
1950s 2
1951 2
1958 2
195@@ 2
1965 2
196@@ 2
197@@ 2
1984 2
200@@ 2
217 2
2nd 2
3,000 2
32 2
35 2
3rd 2
40@@ 2
41 2
44 2
5,000 2
50,000 2
57@@ 2
58 2
6.@@ 2
63 2
68 2
7.@@ 2
750@@ 2
77 2
800 2
83 2
86 2
8th 2
91 2
91@@ 2
92 2
99 2
abbas 2
abbe@@ 2
abil@@ 2
abrasions 2
academics 2
accept 2
access 2
accessed 2
acclaimed 2
accompl@@ 2
account 2
account@@ 2
aches 2
achievement 2
achievements 2
ack 2
acting 2
actively 2
activists 2
activity 2
actress 2
actual 2
adam 2
adap@@ 2
adapted 2
add@@ 2
additions 2
admitted 2
adrastea 2
advantage 2
adventure 2
adventures 2
advisory 2
advocate 2
ae 2
aes 2
agency 2
aggressive 2
agreed 2
agrees 2
ah 2
ailed 2
aine 2
ained 2
ak 2
ake 2
albe@@ 2
alberto 2
albion 2
ale 2
alex@@ 2
algeria 2
algorith@@ 2
ali 2
alities 2
ality 2
all-@@ 2
allas 2
alli@@ 2
allows 2
alma@@ 2
alone 2
alongside 2
alt@@ 2
altar 2
altered 2
alternate 2
alty 2
ambient 2
amph@@ 2
analyzed 2
ancy 2
anderson 2
andhra 2
anding 2
andover 2
angel 2
angeles 2
anglic@@ 2
anglo-@@ 2
ania 2
annes 2
anniversary 2
announ@@ 2
ano 2
anonym@@ 2
ans@@ 2
answering 2
ante 2
anthro@@ 2
antiaircraft 2
anticip@@ 2
antism 2
aparthe@@ 2
aph@@ 2
apostles 2
app@@ 2
appe@@ 2
application 2
aqu@@ 2
ara 2
arab@@ 2
arat 2
arbor@@ 2
archbishop 2
architec@@ 2
architect 2
arctic 2
ards 2
arg@@ 2
arizona 2
armenians 2
armies 2
armored 2
arnold 2
arr@@ 2
arrive 2
arter@@ 2
arterioles 2
arthur 2
ase 2
ashland 2
asked 2
assass@@ 2
assigned 2
assist 2
assistant 2
assortment 2
ast 2
ast@@ 2
astic 2
astro@@ 2
astronomy 2
asymmet@@ 2
ata 2
ately 2
ath 2
atively 2
atl 2
atlanta 2
atoms 2
atory 2
attain 2
attempted 2
attempts 2
attrac@@ 2
aug@@ 2
aur 2
autom@@ 2
automatically 2
autonomous 2
aven@@ 2
ax 2
aying 2
az 2
azerbaijan 2
baba 2
bach 2
bach@@ 2
bacteria 2
bag@@ 2
baghdad 2
bagnotar 2
baham@@ 2
ball@@ 2
ballan 2
bands 2
bangui 2
banks 2
banner 2
bapti@@ 2
barber 2
barker 2
barr 2
barracks 2
barry 2
basil@@ 2
basketball 2
bastille 2
batteries 2
bayern 2
bayreuth 2
bc@@ 2
beauty 2
bec@@ 2
bed 2
beer 2
beg@@ 2
behind 2
bel 2
bel@@ 2
belarus 2
beliefs 2
believes 2
belmont 2
benef@@ 2
bengal 2
bergman 2
bern 2
bernard 2
best-seller 2
beverages 2
beverly 2
bignasco 2
bil@@ 2
bility 2
bing 2
birds 2
bis@@ 2
bishop 2
bit@@ 2
black-@@ 2
black@@ 2
blade 2
ble@@ 2
bles 2
blowfish 2
board 2
boats 2
bogs 2
bohr 2
books 2
borst 2
bou@@ 2
boulogne 2
bounded 2
bour@@ 2
bow@@ 2
braw@@ 2
brazil 2
bre@@ 2
brea@@ 2
bread 2
break 2
brick 2
bride 2
bridges 2
brigade 2
brilliant 2
bring 2
bringing 2
broadway 2
brown 2
brows@@ 2
bruins 2
brun@@ 2
brunswick 2
brut@@ 2
buddhist 2
budget 2
buffy 2
buffyverse 2
buil@@ 2
bulgarian 2
buncombe 2
bund 2
bundesländer 2
bure@@ 2
burg 2
burke 2
byp@@ 2
c-types 2
cab@@ 2
cable 2
cad 2
caine 2
cairo 2
calder 2
caldwell 2
cale 2
call@@ 2
cambridge 2
cameo 2
camer@@ 2
camp 2
campaigner 2
canadi@@ 2
canc@@ 2
candidates 2
candy 2
cane 2
canon 2
canterbury 2
capacity 2
capitol 2
capitol@@ 2
captured 2
carbonaceous 2
cardin@@ 2
cards 2
care@@ 2
carp@@ 2
cases 2
cash 2
cat 2
catalan 2
cath@@ 2
cauc@@ 2
caught 2
cause 2
causse 2
caves 2
cayo 2
caz@@ 2
cbe 2
celebrated 2
celsius 2
celtic 2
cep@@ 2
ceres 2
certificate 2
cerv@@ 2
chad 2
chair 2
chairman 2
champions 2
channel 2
chants 2
chap@@ 2
chapter 2
characteristic 2
characterized 2
charity 2
chase 2
cheaha 2
chemistry 2
cher 2
cher@@ 2
cheshire 2
chi 2
chi@@ 2
chianti 2
chicago 2
childbirth 2
chile 2
chose 2
christ 2
churros 2
ciphers 2
cir@@ 2
cit@@ 2
civil@@ 2
civilization 2
ck 2
claim 2
claimed 2
claws 2
clayton 2
clear@@ 2
cli@@ 2
climate 2
climbing 2
clin@@ 2
clinic 2
clock 2
closely 2
clothing 2
clou@@ 2
cn 2
coalition 2
coaster 2
cock@@ 2
cocoa 2
code@@ 2
coffee 2
cogn@@ 2
coles 2
coll@@ 2
collabor@@ 2
collapse 2
collar 2
collec@@ 2
collectivity 2
combe 2
comment@@ 2
commercial@@ 2
commission@@ 2
commit@@ 2
commitment 2
commonwealth 2
communication 2
communion 2
compat@@ 2
compet@@ 2
compl@@ 2
complement 2
comprises 2
compu@@ 2
concentration 2
concerns 2
conch 2
concl@@ 2
concrete 2
conducted 2
conducting 2
conductors 2
cone 2
conflic@@ 2
connec@@ 2
consequ@@ 2
conservative 2
console 2
conspiracy 2
constitu@@ 2
constitution 2
consulting 2
consum@@ 2
contam@@ 2
continent 2
continental 2
contributed 2
contribution 2
controller 2
conurbation 2
conver@@ 2
convic@@ 2
coordinates 2
copper 2
copyleft 2
copyright 2
corporations 2
corpses 2
correctly 2
cost@@ 2
costs 2
cough 2
counter 2
countess 2
courts 2
courtyard 2
cover@@ 2
cran@@ 2
crat@@ 2
crater 2
craters 2
creation 2
creative 2
creatures 2
credibility 2
cri@@ 2
crime 2
criminal 2
criminals 2
crisis 2
crit@@ 2
critic@@ 2
critical 2
crops 2
cross@@ 2
crossing 2
crown 2
cru@@ 2
cruiserweight 2
crus@@ 2
cry@@ 2
cs 2
cult 2
curse 2
cy@@ 2
cybermen 2
cyclonic 2
d. 2
dak@@ 2
dalai 2
dallas 2
dangerous 2
dar 2
darker 2
dat@@ 2
dav@@ 2
dead 2
deaf 2
debby 2
debussy 2
decision 2
declined 2
deep 2
deer 2
defence 2
defending 2
defic@@ 2
delegation 2
deli@@ 2
dell 2
denis 2
denmark 2
depart@@ 2
dependent 2
deser@@ 2
desert 2
designate 2
dest@@ 2
destruc@@ 2
devastated 2
developers 2
device 2
devices 2
dia@@ 2
diarrhea 2
die 2
diego 2
diemen 2
dies 2
diet 2
differ 2
differ@@ 2
differences 2
differentiated 2
diffic@@ 2
difficult 2
difficulty 2
dim@@ 2
dino@@ 2
diony@@ 2
directing 2
disc 2
discharge 2
discover@@ 2
discoveries 2
discrete-time 2
disk 2
disorganized 2
disper@@ 2
display 2
displays 2
disputes 2
distinction 2
distingu@@ 2
distribu@@ 2
doc@@ 2
doctors 2
dollars 2
dom 2
domin@@ 2
dominance 2
dow@@ 2
dr. 2
dra 2
draft 2
dragons 2
drama 2
dresden 2
drink 2
driver 2
dro@@ 2
drogheda 2
dropped 2
drugs 2
drum 2
dubai 2
duch@@ 2
duchess 2
dust 2
dv@@ 2
dwar@@ 2
dying 2
dynasty 2
e-up 2
eagle 2
eal 2
eans 2
earthquake 2
earthsea 2
eas@@ 2
easement 2
easy 2
eating 2
echidna 2
econom@@ 2
ection 2
ections 2
ective 2
ecture 2
edit 2
edit@@ 2
edited 2
editor 2
editors 2
eeded 2
efforts 2
eful 2
el-@@ 2
electromagnetic 2
eless 2
elev@@ 2
elevated 2
eli@@ 2
elian 2
elism 2
elliot 2
elongated 2
eman@@ 2
embar@@ 2
ements 2
emerged 2
emergency 2
emic 2
emily 2
emot@@ 2
emotional 2
emp@@ 2
ench@@ 2
encies 2
encompass@@ 2
encyclopedia 2
encyclopædia 2
endangered 2
endant 2
endor@@ 2
enem@@ 2
enforcement 2
engineering 2
engraving 2
ening 2
enjo@@ 2
enlarg@@ 2
enny 2
ense 2
ensi@@ 2
ental 2
ented 2
entering 2
ention 2
entra@@ 2
environment 2
epiphytic 2
episcopal 2
episodes 2
epsilon 2
equals 2
equilibrium 2
er-@@ 2
eral 2
eral@@ 2
erc@@ 2
erectus 2
ern@@ 2
errors 2
ert 2
eruption 2
escap@@ 2
essed 2
ession 2
essor 2
establ@@ 2
estate 2
et-@@ 2
eter 2
eth 2
eunomia 2
eva 2
eval 2
event@@ 2
evidence 2
evil 2
ew@@ 2
examination 2
excep@@ 2
except 2
exceptions 2
excuse 2
execution 2
exercise 2
exist@@ 2
existed 2
existence 2
exp@@ 2
expansion 2
expelled 2
experi@@ 2
experience 2
experiments 2
explo@@ 2
explosi@@ 2
ext 2
extended 2
extinct 2
extre@@ 2
exual 2
eyewall 2
ez 2
ezra 2
fa 2
factor 2
factors 2
fail 2
failure 2
fair 2
faith 2
faith@@ 2
fall@@ 2
families 2
fant@@ 2
farm@@ 2
fault 2
feast 2
feat@@ 2
feathersword 2
fel@@ 2
feld 2
fet@@ 2
feudal 2
fever 2
fewer 2
fictitious 2
fierce 2
fifteen 2
fifth 2
fig@@ 2
figaro 2
fighter 2
fighting 2
file 2
files 2
fill 2
fill@@ 2
finals 2
financ@@ 2
find 2
fior@@ 2
firefly 2
fit 2
flags 2
flat@@ 2
flavour 2
flight 2
flor@@ 2
flows 2
fluctu@@ 2
fly 2
foam@@ 2
focus 2
follow@@ 2
follows 2
font 2
font-size 2
fool 2
foot@@ 2
forc@@ 2
fore@@ 2
forti@@ 2
fortun@@ 2
fortune 2
fossil 2
founder 2
founding 2
four-@@ 2
four@@ 2
fox 2
francis 2
frequent 2
friendship 2
fringe 2
fron@@ 2
front@@ 2
frontier 2
fruit 2
fs 2
ft 2
fueled 2
ful@@ 2
functionally 2
funds 2
fur@@ 2
für 2
galilee 2
gallery 2
gand@@ 2
gar 2
garage 2
gard 2
garonne 2
gay 2
gaz@@ 2
generalizations 2
generated 2
genes 2
genetic 2
genocide 2
genotype 2
geo 2
geograph@@ 2
geographical 2
geological 2
georg@@ 2
gers 2
ges 2
gh 2
ght 2
ghter 2
gill 2
girls 2
globe 2
glory 2
goals 2
goddess 2
gogh 2
golden@@ 2
golf 2
google 2
gpa 2
gradu@@ 2
grail 2
grand 2
grand@@ 2
graphy 2
grass@@ 2
gray 2
great@@ 2
greens 2
greta 2
grey 2
gs 2
guangxi 2
guerr@@ 2
guerrero 2
guin@@ 2
guitar@@ 2
gulf 2
gust 2
gusta@@ 2
gw@@ 2
ha 2
habit@@ 2
had@@ 2
hain@@ 2
hairs 2
hait@@ 2
hak@@ 2
half-hour 2
hamp@@ 2
handles 2
happy 2
hartford 2
harv@@ 2
hate 2
hatt@@ 2
head@@ 2
headbangers 2
heat 2
heav@@ 2
heavily 2
hebrew 2
height 2
heisenberg 2
hektor 2
hell@@ 2
hem@@ 2
hen@@ 2
henson 2
herac@@ 2
hermann 2
hermione 2
hig@@ 2
highly 2
hill@@ 2
hind 2
historians 2
historically 2
hit@@ 2
hn 2
hobbit 2
hogan 2
hole 2
homes 2
honours 2
hop 2
hope 2
hosp@@ 2
house@@ 2
housemates 2
houston 2
howard 2
hs@@ 2
humanitarian 2
hundreds 2
hunting 2
huntsman 2
huá@@ 2
hybrid 2
hymn 2
hynobiidae 2
ian@@ 2
iano 2
ians 2
ibanez 2
icelandic 2
ices 2
icrc 2
ide@@ 2
ideas 2
ided 2
ident 2
identical 2
identif@@ 2
identified 2
ides 2
ien 2
iency 2
iev@@ 2
ified 2
iled 2
iles 2
ili@@ 2
ility 2
illa 2
illiterate 2
illnesses 2
illusion 2
ily 2
im 2
ima@@ 2
immediately 2
impl@@ 2
implem@@ 2
implementations 2
impro@@ 2
improved 2
ination 2
inc 2
inc. 2
inca 2
incarnation 2
incorpor@@ 2
increas@@ 2
increase 2
ind@@ 2
independently 2
indic@@ 2
indicated 2
indonesia 2
industries 2
ine-@@ 2
iner 2
infra@@ 2
ingdon 2
inheritance 2
ining 2
inj@@ 2
ino 2
inous 2
inscription 2
inside 2
inspiration 2
install@@ 2
institu@@ 2
instruments 2
inte@@ 2
intelligence 2
inter 2
interview 2
ints 2
invest@@ 2
involvement 2
involves 2
iowa 2
ipswich 2
ira 2
iraq@@ 2
irregularly 2
irs 2
isa@@ 2
isbn 2
ise 2
ises 2
ishers 2
ishing 2
ision 2
isms 2
isolde 2
iss@@ 2
ista 2
ital@@ 2
italian@@ 2
ithic 2
itted 2
itute 2
ix@@ 2
izations 2
jam@@ 2
janus 2
jazz 2
jean 2
jean-@@ 2
jersey 2
jets 2
jewelry 2
jewish 2
jimmy 2
johnson 2
jon@@ 2
jordison 2
josef 2
joseph 2
josé 2
journ@@ 2
journal 2
juan 2
jubilee 2
juice 2
jun@@ 2
junction 2
jör@@ 2
ka 2
kai 2
kal@@ 2
kami 2
karnataka 2
keep@@ 2
ken@@ 2
kerberos 2
kevin 2
key@@ 2
kg 2
kic@@ 2
kids 2
killed 2
kilometres 2
kin@@ 2
kind 2
kingdoms 2
kir@@ 2
km2 2
know 2
ko 2
kol@@ 2
koxinga 2
kreis 2
kyo@@ 2
labor@@ 2
labour 2
lad 2
lad@@ 2
lady 2
lahore 2
laid 2
lain 2
lanarkshire 2
lass@@ 2
latency 2
lau@@ 2
law@@ 2
lawrence 2
layers 2
leaf 2
learning 2
least 2
legen@@ 2
legendary 2
legislature 2
leicester 2
lemmon 2
lenn@@ 2
lenses 2
leo@@ 2
leonardo 2
ler@@ 2
let 2
letters 2
lewinsky 2
liber@@ 2
liberation 2
libertarian 2
libya 2
lic@@ 2
lieuten@@ 2
light@@ 2
likely 2
lilo 2
limbs 2
limit 2
lincoln 2
ling 2
link 2
lion 2
lip 2
liquid 2
list@@ 2
listing 2
liter@@ 2
literature 2
liver@@ 2
lo 2
locations 2
locomotives 2
long-@@ 2
lop@@ 2
loss 2
lossless 2
lot 2
louis@@ 2
low-@@ 2
low@@ 2
lus@@ 2
luther 2
luther@@ 2
lyric 2
lyrics 2
lywood 2
lüdinghausen 2
m. 2
mad@@ 2
madri@@ 2
maestro 2
magnetic 2
mah@@ 2
mai 2
mainland 2
maintain 2
maintaining 2
maj@@ 2
mak@@ 2
mali 2
mam@@ 2
manager 2
manchu 2
mandate 2
mang@@ 2
manufacturer 2
manufactures 2
mar 2
marc@@ 2
maria 2
marine 2
maritime 2
market 2
mars 2
marshall 2
maryland 2
masses 2
masterpieces 2
mate 2
material 2
materials 2
matt 2
max@@ 2
may@@ 2
mayor 2
mccar@@ 2
mcmahon 2
meanwhile 2
measu@@ 2
measured 2
medal 2
medi@@ 2
medic@@ 2
meets 2
megal@@ 2
melanoleuc@@ 2
melo@@ 2
mental 2
mentioned 2
meridiem 2
meso@@ 2
mess@@ 2
message 2
messing 2
metabolic 2
metalsmithing 2
meteorological 2
metro@@ 2
mexican 2
mickey 2
microsoft 2
mil@@ 2
mile 2
mill@@ 2
millenn@@ 2
minar@@ 2
mines 2
minimum 2
mining 2
ministry 2
minutes 2
mir@@ 2
miss 2
missiles 2
mix@@ 2
mixed 2
mob@@ 2
model 2
models 2
modern@@ 2
modification 2
module 2
moment 2
moons 2
moritz 2
morning 2
moth 2
motion 2
mou@@ 2
mount 2
mour@@ 2
mouse 2
movements 2
mozart 2
mtv 2
muawiyah 2
mud 2
mud@@ 2
mulde 2
multipl@@ 2
munroe 2
murray 2
musicians 2
mutant 2
my 2
my@@ 2
myster@@ 2
nadu 2
nan@@ 2
nano@@ 2
nap@@ 2
navy 2
near@@ 2
nearest 2
nebul@@ 2
needs 2
negoti@@ 2
negotiations 2
nel 2
nel@@ 2
nes 2
nessler 2
nests 2
net 2
neu@@ 2
neville 2
news 2
newspaper 2
nian 2
nicholas 2
nick 2
nick@@ 2
nin@@ 2
nineteenth 2
nintendo 2
noble 2
nomin@@ 2
nominations 2
non-co@@ 2
nor 2
norfolk 2
north-@@ 2
north@@ 2
northeastern 2
northwestward 2
norwich 2
notable 2
notice 2
num@@ 2
numbers 2
nutcracker 2
nypd 2
o-@@ 2
ober@@ 2
objection 2
observ@@ 2
obsidian 2
obstacles 2
obtained 2
oc 2
occas@@ 2
occasionally 2
occultations 2
occup@@ 2
occupation 2
occupied 2
occurr@@ 2
occurs 2
ocked 2
od 2
ofelia 2
offer 2
officer 2
og@@ 2
ogra@@ 2
ography 2
ogy 2
oh 2
oheterotroph 2
oldest 2
oli 2
olog@@ 2
ologies 2
olymp@@ 2
ome 2
on-@@ 2
onen 2
ones 2
ong 2
onn@@ 2
ontario 2
onto 2
onym 2
oo 2
oot 2
opening 2
openly 2
opeth 2
oph@@ 2
oppon@@ 2
option 2
oratorio 2
orchestras 2
ores@@ 2
organ 2
ories 2
origin 2
originates 2
ornam@@ 2
ornithologist 2
orous 2
orship 2
oscill@@ 2
osp@@ 2
ot-@@ 2
ots 2
ott@@ 2
ound 2
ourt 2
outdoor 2
ownership 2
oy@@ 2
p-@@ 2
pacifist 2
packagekit 2
packages 2
paid 2
pair 2
palace 2
palestinian 2
papua 2
paradise 2
parall@@ 2
participate 2
particle 2
particulate 2
partnership 2
pas-de-calais 2
patches 2
path@@ 2
patient 2
patients 2
patri@@ 2
pay-per-view 2
pea@@ 2
peace 2
peaked 2
pepper 2
perc@@ 2
perished 2
permission 2
persons 2
pes 2
pest@@ 2
pet 2
ph 2
phar@@ 2
phases 2
phen@@ 2
phenom@@ 2
phenomena 2
pher@@ 2
philadelphia 2
philosoph@@ 2
philosophy 2
photoreceptors 2
photos 2
phrase 2
phys@@ 2
physicist 2
pianist 2
piano 2
picas@@ 2
pie 2
pill@@ 2
piper 2
pittsburgh 2
plain 2
planned 2
planning 2
plat@@ 2
plates 2
platformer 2
plays 2
playwright 2
plutoids 2
pm 2
poem 2
policy 2
polis 2
polit@@ 2
poll 2
pompeii 2
pools 2
pope 2
porn 2
pornography 2
portable 2
portion 2
portrait 2
posed 2
posted 2
potential 2
pottery 2
poverty 2
powerful 2
powers 2
pra@@ 2
pre-columbian 2
prec@@ 2
precipitation 2
precise 2
precur@@ 2
precursor 2
presence 2
presented 2
presid@@ 2
presidential 2
press@@ 2
pression 2
pretoria 2
prevented 2
princ@@ 2
princip@@ 2
printers 2
procedure 2
processor 2
produces 2
producing 2
productions 2
profit 2
progr@@ 2
programmed 2
progress 2
projects 2
promote 2
promoted 2
promotional 2
prop@@ 2
proportion 2
proposed 2
prote@@ 2
protected 2
protest@@ 2
protestant 2
protocols 2
prov@@ 2
proved 2
provence-alpes-côte 2
provides 2
provisions 2
proxy 2
prus@@ 2
pré 2
psyche 2
publ@@ 2
publications 2
publisher 2
puck 2
pulp@@ 2
punishment 2
punj@@ 2
punt 2
qing 2
quality 2
quarterback 2
quebec 2
question 2
quially 2
quirinus 2
ra 2
rac@@ 2
racing 2
radiation 2
rah 2
rail@@ 2
railways 2
raja 2
rams 2
ranges 2
ranging 2
ranks 2
rant 2
rapid 2
rare 2
rates 2
rating 2
ration 2
rats 2
rc4 2
re-@@ 2
read 2
read@@ 2
reading 2
rear 2
reas@@ 2
reasons 2
rebuilt 2
receives 2
recognition 2
recommended 2
recording 2
recruited 2
red@@ 2
reddish 2
ree 2
reed 2
ref@@ 2
referee 2
reflects 2
refugee 2
refused 2
reg@@ 2
regiment 2
regional 2
regions 2
reign 2
reigned 2
reigning 2
relatives 2
reli@@ 2
remaining 2
remembrance 2
reminiscent 2
ren@@ 2
renault 2
replacement 2
representatives 2
represented 2
requ@@ 2
reservoir 2
residents 2
resignation 2
respec@@ 2
respective 2
respond 2
response 2
rest 2
retained 2
retirement 2
retrieved 2
retroactively 2
returning 2
revealed 2
reverend 2
reverse 2
reverted 2
reviews 2
revolution 2
revolver 2
rfa 2
rhine 2
rian 2
rich 2
richelieu 2
rier 2
riluzole 2
ripley 2
ris 2
rising 2
rit@@ 2
rival 2
road@@ 2
roads 2
rocket 2
rod 2
roe 2
role-playing 2
roll 2
roller 2
romans 2
ron 2
roofing 2
roseanne 2
roses 2
roth 2
rotten 2
row@@ 2
rsa 2
rt 2
ruler 2
rules 2
rumble 2
run 2
running 2
runs 2
rush 2
sal@@ 2
salaam 2
salamander 2
salt 2
saltire 2
sanctuary 2
sand@@ 2
sandstone 2
santiago 2
saxon 2
saxony 2
scarborough 2
scenes 2
scheduling 2
schiff 2
scholars 2
scholarship 2
scientist 2
scoop 2
scotland 2
scottish 2
screenplay 2
seas 2
seaside 2
seasons 2
seatic 2
seats 2
sec@@ 2
section 2
sects 2
secure 2
sed 2
sedimentary 2
seeds 2
seeing 2
seergah 2
sees 2
sel 2
selassie 2
selection 2
selene 2
seleucidis 2
self-contained 2
semble 2
sensitive 2
sensus 2
sequel 2
sequences 2
sermon 2
servation 2
sessions 2
sets 2
seventeenth 2
sfield 2
sgt. 2
shaolin 2
shield 2
shinto 2
shire 2
shirt 2
sho@@ 2
shoot 2
shooting 2
shop 2
shor@@ 2
shot 2
shoulder 2
shrub 2
sian 2
sided 2
siege 2
siena 2
sign@@ 2
signature 2
significant 2
silly 2
simil@@ 2
simpson 2
simulate 2
sing@@ 2
singapore 2
sis 2
situation 2
situations 2
sizes 2
sk 2
sk@@ 2
skin 2
sky 2
sl@@ 2
slave 2
slavic 2
sleeveless 2
slip 2
slipknot 2
sm@@ 2
smell 2
smithson 2
so@@ 2
soap 2
socratic 2
soest 2
soft 2
soil 2
soils 2
soldiers 2
solely 2
solntsevskaya 2
solo 2
soma 2
somerset 2
sop@@ 2
sor@@ 2
sors 2
sounds 2
southwestern 2
sox 2
spac@@ 2
spain 2
spandau 2
spanned 2
spd 2
speak 2
spears 2
specif@@ 2
specifying 2
spectrum 2
spects 2
speech 2
spells 2
split 2
sponsors 2
sportive 2
spot 2
spurgeon 2
spy 2
squares 2
ssed 2
sses 2
ssl 2
st-@@ 2
sta@@ 2
stable 2
stal 2
stand 2
standardized 2
standing 2
stands 2
star@@ 2
statesman 2
static 2
stayed 2
steam 2
sted 2
stellar 2
stemmed 2
stems 2
stephanie 2
ster 2
ster@@ 2
sternmost 2
steve 2
sthenurine 2
ston 2
stood 2
storage 2
str@@ 2
straddles 2
straight 2
stream 2
strengthening 2
stric@@ 2
strip 2
student 2
studied 2
studying 2
stuttgart 2
subdivision 2
subfamily 2
submitted 2
subsidiary 2
substances 2
substantial 2
successful 2
suddenly 2
suffered 2
suggests 2
suite 2
sula 2
sum 2
sume 2
summary 2
summoned 2
sun@@ 2
sunderland 2
sunshine 2
superimposed 2
superiore 2
supermarkets 2
supply 2
supporting 2
supposed 2
sur@@ 2
surgical 2
suring 2
surname 2
surround 2
surrounding 2
survival 2
survive 2
sus 2
suspected 2
sustained 2
sweet 2
swift 2
swimming 2
switching 2
symb@@ 2
symbols 2
symptoms 2
syno@@ 2
syrian 2
tacitus 2
tact@@ 2
tail 2
tain 2
takama-ga-hara 2
takes 2
tale 2
tamil 2
tares 2
task 2
taste 2
tation 2
taxation 2
taxonomy 2
tazz 2
teachings 2
technique 2
techniques 2
technology 2
temperature 2
ten@@ 2
tended 2
tennis 2
tering 2
terminal 2
terminate 2
tern 2
terns 2
ters 2
tese 2
testing 2
text 2
textiles 2
theater 2
theatre 2
then-@@ 2
theological 2
theoretical 2
ther 2
thereafter 2
thermometer 2
thers 2
thes@@ 2
thi@@ 2
thin 2
thinking 2
third-largest 2
thirty 2
threat 2
thriller 2
thunderstorm 2
tie 2
tiko 2
tile 2
timber 2
timor 2
titan 2
titude 2
tls 2
tly 2
to-@@ 2
topic 2
tos 2
tou@@ 2
touched 2
tourism 2
tow@@ 2
toward 2
toy 2
tr@@ 2
trace 2
traces 2
tradition 2
trails 2
trains 2
tram 2
tran@@ 2
transfer 2
transportation 2
trav@@ 2
tree 2
trial 2
trick 2
tries 2
trio 2
tripoli 2
tristan 2
tro@@ 2
troops 2
trophy 2
trusion 2
try 2
tural 2
turin 2
turkey 2
turks 2
turn 2
tuscany 2
twel@@ 2
twelve 2
uded 2
ula 2
ules 2
uli 2
ump 2
una 2
und@@ 2
undamental 2
undated 2
undertaken 2
undertaker 2
unincorporated 2
unity 2
universities 2
unknown 2
unlike 2
unrelated 2
unted 2
up@@ 2
upscale 2
ural 2
uranus 2
ured 2
ures 2
uri 2
uring 2
users 2
ussion 2
utc 2
utes 2
utive 2
uttar 2
valleys 2
valuable 2
van@@ 2
vancouver 2
variant 2
varieties 2
ve@@ 2
vegetation 2
vel 2
venues 2
verse 2
verses 2
versial 2
ves@@ 2
vessels 2
vh1 2
vice 2
victory 2
vienna 2
vies 2
view@@ 2
views 2
violence 2
virtual 2
vis@@ 2
visiting 2
visits 2
visual 2
vocal 2
vol 2
volunteer 2
vote 2
vyvyan 2
vättern 2
w. 2
wagner 2
waley 2
walks 2
walter 2
walthamstow 2
walton 2
war@@ 2
warm 2
watch 2
watching 2
waterson 2
wave 2
waves 2
wcw 2
we 2
weak 2
weak@@ 2
weakened 2
wealth 2
weapons 2
wear 2
weeks 2
weights 2
well-known 2
wells 2
werner 2
westminster 2
westphalia 2
whenever 2
wi-fi 2
wid@@ 2
wide-@@ 2
williams 2
windows 2
winner 2
wire 2
wit@@ 2
withdrew 2
witn@@ 2
wolf 2
wor@@ 2
workers 2
worn 2
worst 2
woven 2
wrestled 2
write 2
württemberg 2
xiii 2
y-@@ 2
yancey 2
yaoundé 2
yer 2
yers 2
yin 2
yman 2
za 2
zer 2
zhengzhou 2
zhuang 2
zone 2
zones 2
£ 2
án 2
’ 2
“ 2
” 2
-1990s 1
-based 1
-level 1
-type 1
... 1
100@@ 1
14th 1
190@@ 1
198@@ 1
20s 1
30th 1
93@@ 1
= 1
aba 1
abad 1
accident 1
accor@@ 1
accounts 1
ace 1
ached 1
achiev@@ 1
ack@@ 1
acks 1
act@@ 1
activ@@ 1
addition@@ 1
addre@@ 1
administr@@ 1
adop@@ 1
adul@@ 1
adults 1
affairs 1
afl 1
aga 1
age@@ 1
aggre@@ 1
agreements 1
agricul@@ 1
aign@@ 1
ail@@ 1
ain 1
ains 1
aired 1
aka 1
akes 1
ala 1
aland 1
alber@@ 1
ales 1
alists 1
alle@@ 1
allowed 1
alpes-@@ 1
alter@@ 1
amaz@@ 1
ame 1
americ@@ 1
amm@@ 1
amoun@@ 1
amp@@ 1
ams 1
amusement 1
ana 1
anal@@ 1
analyzing 1
ancest@@ 1
ancestors 1
anded 1
anna 1
anus 1
anyone 1
ap 1
apo@@ 1
appear@@ 1
approved 1
approxim@@ 1
apri@@ 1
arch 1
archit@@ 1
are@@ 1
ari@@ 1
arity 1
arri@@ 1
aside 1
asser@@ 1
asserting 1
assi@@ 1
assist@@ 1
assists 1
assor@@ 1
asts 1
asy 1
ata@@ 1
atl@@ 1
ato 1
atom@@ 1
attle 1
attracted 1
attribu@@ 1
atures 1
audi@@ 1
ause 1
austral@@ 1
avi@@ 1
awi@@ 1
awn 1
ayer 1
bac@@ 1
back-up 1
back@@ 1
backup 1
bad 1
bal 1
bat 1
battal@@ 1
bean 1
beat@@ 1
becomes 1
begin@@ 1
belgium 1
belief 1
believe 1
bene@@ 1
berg 1
bers 1
bes 1
bes@@ 1
beth 1
bigger 1
biggest 1
bin@@ 1
bodies 1
bon 1
boo@@ 1
bor 1
bought 1
boun@@ 1
brit@@ 1
britann@@ 1
broken 1
brou@@ 1
brow@@ 1
brü@@ 1
bud@@ 1
bulgar@@ 1
bundes@@ 1
burgh 1
bury 1
bus@@ 1
buses 1
busin@@ 1
cab 1
calcul@@ 1
califor@@ 1
campaign@@ 1
cand@@ 1
candid@@ 1
capit@@ 1
carbon@@ 1
carol@@ 1
carry 1
carrying 1
cast 1
cat@@ 1
catal@@ 1
cathedr@@ 1
caus@@ 1
cc@@ 1
ced 1
celebr@@ 1
celebration 1
cen@@ 1
centr@@ 1
certain@@ 1
ces 1
cham@@ 1
champ@@ 1
chancell@@ 1
chang@@ 1
character@@ 1
characterist@@ 1
ches@@ 1
chic@@ 1
chil@@ 1
chin@@ 1
chocol@@ 1
choo@@ 1
chor@@ 1
chr@@ 1
ciph@@ 1
circul@@ 1
civ@@ 1
ck@@ 1
claim@@ 1
class@@ 1
classes 1
cle 1
cloth@@ 1
coal@@ 1
coast@@ 1
cock 1
coco@@ 1
collection 1
columb@@ 1
com 1
combines 1
commended 1
compass@@ 1
compris@@ 1
conduc@@ 1
confirmed 1
connections 1
conquered 1
consi@@ 1
consol@@ 1
constant@@ 1
consul@@ 1
contaminated 1
contin@@ 1
contr@@ 1
cope 1
corp@@ 1
corpor@@ 1
count@@ 1
cour@@ 1
crack@@ 1
craft 1
crash@@ 1
creates 1
cred@@ 1
crete 1
cric@@ 1
cris@@ 1
criticized 1
cro@@ 1
ctic 1
cw 1
cyber@@ 1
cycl@@ 1
dd@@ 1
de-@@ 1
dea@@ 1
deals 1
deb@@ 1
debu@@ 1
decay 1
del 1
deleg@@ 1
democ@@ 1
den 1
dera 1
dered 1
derick 1
descri@@ 1
deter@@ 1
devot@@ 1
dges 1
dia 1
diem 1
ding@@ 1
dings 1
direc@@ 1
disappeared 1
discre@@ 1
diseases 1
dish 1
dison 1
dispu@@ 1
dist@@ 1
distric@@ 1
dition@@ 1
dium 1
divid@@ 1
divisions 1
dle 1
dly 1
doctrine 1
docum@@ 1
drag@@ 1
draw@@ 1
drop 1
dru@@ 1
duc@@ 1
duce 1
dun@@ 1
duty 1
dy@@ 1
e-shaped 1
eared 1
ears 1
ebr@@ 1
ech 1
ech@@ 1
eck@@ 1
ecraft 1
ecting 1
ects 1
eded 1
edges 1
educ@@ 1
educational 1
ee 1
eering 1
effort 1
eigh@@ 1
elec@@ 1
electro@@ 1
eles 1
elic 1
elite 1
ell-@@ 1
elle 1
elled 1
elli@@ 1
ello 1
ells 1
elong@@ 1
em 1
embl@@ 1
emented 1
emerg@@ 1
empl@@ 1
ems 1
enberg 1
encing 1
ened 1
engl@@ 1
enha@@ 1
enna 1
enses 1
ensions 1
entary 1
enter@@ 1
ention@@ 1
epi@@ 1
erce 1
erec@@ 1
ergy 1
ering 1
erman 1
ero 1
err@@ 1
erson 1
ery 1
es-@@ 1
esque 1
esses 1
estion 1
eta 1
ete 1
etry 1
ety 1
euro@@ 1
euv@@ 1
evin 1
evol@@ 1
ew 1
exam@@ 1
exc@@ 1
exec@@ 1
exists 1
experim@@ 1
explain 1
extensi@@ 1
extern@@ 1
extinc@@ 1
fam@@ 1
famili@@ 1
familiar 1
fan 1
fast@@ 1
fav@@ 1
fea@@ 1
feather@@ 1
feder@@ 1
female 1
fest@@ 1
festiv@@ 1
fied 1
fights 1
fla@@ 1
flav@@ 1
flies 1
floo@@ 1
flooded 1
flow@@ 1
flowers 1
fo@@ 1
focusing 1
fon@@ 1
forecasts 1
foreplay 1
forests 1
forming 1
fort@@ 1
forth 1
fou@@ 1
fought 1
franch@@ 1
frank@@ 1
fred 1
frequ@@ 1
frequency 1
fresh@@ 1
fri@@ 1
friend@@ 1
fro@@ 1
fru@@ 1
fuel@@ 1
func@@ 1
furt 1
fü@@ 1
g-@@ 1
galil@@ 1
gall@@ 1
gandhi 1
gases 1
gency 1
gene 1
general@@ 1
geor@@ 1
gery 1
gest 1
gets 1
ghts 1
gi 1
gian 1
gie 1
glo@@ 1
gloves 1
gne 1
gol@@ 1
govern@@ 1
governor@@ 1
group@@ 1
grown 1
gue 1
gun@@ 1
half-@@ 1
hall@@ 1
happened 1
hara 1
harbor 1
hard@@ 1
hardcore 1
hart@@ 1
has@@ 1
hawa@@ 1
hear@@ 1
hein@@ 1
help@@ 1
helped 1
helps 1
heng@@ 1
herbs 1
him@@ 1
hist@@ 1
hitting 1
homo@@ 1
honored 1
horses 1
hou@@ 1
how@@ 1
hr@@ 1
ht 1
hub@@ 1
human@@ 1
hunt 1
hus@@ 1
hybri@@ 1
hynobi@@ 1
ial@@ 1
ially 1
ials 1
icas@@ 1
icel@@ 1
ician 1
ick 1
icle 1
ida 1
idae 1
idate 1
idation 1
idence 1
ident@@ 1
identi@@ 1
ie 1
ie@@ 1
iel 1
iel@@ 1
ient 1
ients 1
iff 1
ific@@ 1
ification 1
ille 1
illi@@ 1
implement@@ 1
impossible 1
ina 1
inated 1
incar@@ 1
ince 1
incorporated 1
incre@@ 1
increased 1
indones@@ 1
indu@@ 1
induc@@ 1
info 1
inga 1
ingu@@ 1
inhabit@@ 1
inking 1
inspired 1
instrum@@ 1
intensi@@ 1
intensified 1
intentionally 1
intern@@ 1
interrup@@ 1
intro@@ 1
introduc@@ 1
inus 1
iol@@ 1
ional 1
ionally 1
ior 1
ire@@ 1
isb@@ 1
isenberg 1
ish-@@ 1
isha@@ 1
isher 1
ishes 1
ishment 1
isia 1
isra@@ 1
iss 1
issance 1
issi@@ 1
issu@@ 1
istan 1
ister@@ 1
istr@@ 1
ital 1
ith@@ 1
ither 1
ition@@ 1
itors 1
itz 1
ively 1
ivity 1
ization 1
izers 1
jac@@ 1
jack@@ 1
jaz@@ 1
jected 1
jewel@@ 1
jim@@ 1
john@@ 1
joint 1
jor@@ 1
kam@@ 1
kangar@@ 1
kangaroos 1
ke@@ 1
ken 1
ket@@ 1
kid@@ 1
kil@@ 1
kill 1
kilomet@@ 1
kilometers 1
kirch@@ 1
kit 1
kly 1
know@@ 1
komo@@ 1
kow@@ 1
ky 1
lab@@ 1
laborers 1
lanar@@ 1
lation 1
ld 1
lear@@ 1
leaves 1
leech 1
legis@@ 1
leon@@ 1
less@@ 1
let@@ 1
lier 1
lim@@ 1
linked 1
lions 1
load 1
look 1
lor@@ 1
lou@@ 1
loy@@ 1
mach@@ 1
maker 1
mal 1
manag@@ 1
manu@@ 1
manufac@@ 1
maritim@@ 1
mark@@ 1
mas 1
mass@@ 1
mathemat@@ 1
maxim@@ 1
mbar 1
mean 1
mean@@ 1
meas@@ 1
measuring 1
medium 1
meet@@ 1
meeting 1
member@@ 1
ments 1
meo 1
mer 1
merc@@ 1
mercen@@ 1
mercenary 1
merg@@ 1
metropolit@@ 1
micha@@ 1
mid 1
migrants 1
migrated 1
mild 1
milit@@ 1
mine 1
ming 1
ming@@ 1
modi@@ 1
mol@@ 1
molec@@ 1
mosqu@@ 1
most@@ 1
moun@@ 1
mountain@@ 1
mouth 1
mov@@ 1
moves 1
multi@@ 1
mur@@ 1
muse@@ 1
musli@@ 1
mut@@ 1
mutin@@ 1
mé@@ 1
mün@@ 1
nard 1
nat@@ 1
nd 1
ned 1
needed 1
neg@@ 1
negative 1
ners 1
nerv@@ 1
neur@@ 1
neurolog@@ 1
nh@@ 1
nia 1
nie 1
noticed 1
ny 1
obj@@ 1
objects 1
occ@@ 1
occul@@ 1
och@@ 1
ock 1
ock@@ 1
ocking 1
odox 1
oe 1
ois 1
ol 1
ole 1
oli@@ 1
olic 1
olin 1
olym@@ 1
om 1
ona 1
ones@@ 1
onia 1
ony 1
onym@@ 1
open@@ 1
opinion 1
opp@@ 1
opport@@ 1
oppos@@ 1
opposing 1
optical 1
ordered 1
ordin@@ 1
orecep@@ 1
ores 1
osa 1
osi 1
otari@@ 1
otariidae 1
oth 1
oth@@ 1
oti@@ 1
ott 1
otte 1
otted 1
otype 1
ould 1
ounds 1
outs 1
ove 1
oven 1
owa 1
own@@ 1
pa 1
pac@@ 1
pain 1
pak@@ 1
participated 1
partner@@ 1
pass@@ 1
passed 1
passing 1
pathy 1
pav@@ 1
pay 1
pay@@ 1
pear@@ 1
penc@@ 1
pencils 1
pend@@ 1
perim@@ 1
person@@ 1
personality 1
pes@@ 1
phia 1
phic 1
phil@@ 1
philharm@@ 1
philos@@ 1
phot@@ 1
photogra@@ 1
photograph@@ 1
phr@@ 1
pian@@ 1
pical 1
piece 1
pillar 1
pipel@@ 1
pitts@@ 1
pk@@ 1
plan 1
plann@@ 1
plu@@ 1
pods 1
poli 1
polish 1
pom@@ 1
poor@@ 1
poorer 1
popul@@ 1
poss@@ 1
possi@@ 1
power@@ 1
pper 1
predomin@@ 1
premi@@ 1
premiere 1
previ@@ 1
print@@ 1
pris@@ 1
prise 1
prison@@ 1
pro-@@ 1
probl@@ 1
professi@@ 1
progra@@ 1
proper@@ 1
provinc@@ 1
provis@@ 1
ption 1
pu 1
pub@@ 1
pulling 1
purchase 1
purple 1
purpos@@ 1
pursuit 1
py@@ 1
pygoscelis 1
pythis 1
qingzang 1
qnome 1
quadrants 1
qualifications 1
qualify 1
quantity 1
quantized 1
quarter@@ 1
quartz 1
que@@ 1
queensland 1
quentin 1
quest@@ 1
questions 1
quickly 1
quiet 1
quinine 1
quir@@ 1
quis 1
qundi 1
raad 1
racehorse 1
rad 1
radi@@ 1
radius 1
raham 1
raiders 1
railroads 1
rally 1
ram 1
ram@@ 1
ramming 1
ramonet 1
ran 1
ran@@ 1
random 1
randomly 1
rang@@ 1
ranged 1
rangers 1
ransom 1
rard 1
raspberry 1
rat 1
rat@@ 1
rath 1
rathenow 1
ratization 1
rattle 1
rauss 1
ravenna 1
rawalpindi 1
ray 1
rays 1
razor 1
rc@@ 1
rd 1
re-exam@@ 1
reade 1
real@@ 1
realises 1
realistic 1
realizations 1
realms 1
reason 1
reate 1
rebelled 1
rebellion 1
rebellions 1
recent 1
recognizes 1
recor@@ 1
recover 1
recover@@ 1
recreate 1
recruits 1
redskins 1
reduc@@ 1
reduce 1
reduction 1
redwall 1
reeds 1
reef 1
refl@@ 1
reflect 1
reflection 1
reform 1
reformation 1
refuge 1
refugees 1
refuses 1
regained 1
reggio 1
regim@@ 1
register 1
registration 1
regul@@ 1
regulation 1
rehearsals 1
reich 1
reichenau 1
reichsführer-ss 1
rejected 1
reka 1
rel 1
relationships 1
relative 1
relativity 1
relay 1
rele@@ 1
releases 1
relieving 1
religions 1
relish 1
relocation 1
rels 1
rely 1
relying 1
rem@@ 1
remain@@ 1
remake 1
rematch 1
remedios 1
rement 1
rements 1
remer 1
removal 1
remove 1
removed 1
renalb 1
renaming 1
rendong 1
renewable 1
renewed 1
renovating 1
rent 1
rené 1
reorganization 1
repays 1
repe@@ 1
replace 1
repor@@ 1
report 1
represent 1
represent@@ 1
representations 1
reproduc@@ 1
reproduce 1
reproductive 1
reptiles 1
repu@@ 1
republican 1
republicans 1
reputation 1
requests 1
resc@@ 1
rescue 1
researcher 1
reserve 1
reserved 1
resid@@ 1
reside 1
residences 1
resinous 1
resists 1
resorts 1
resource 1
respiratory 1
rested 1
restkreis 1
restore 1
results 1
resume 1
resumed 1
retali@@ 1
retention 1
retiring 1
retri@@ 1
returns 1
reuther 1
rev 1
reve@@ 1
reveal 1
revenge 1
review 1
reviewed 1
revived 1
revolt 1
revolu@@ 1
revolutionary 1
revolutions 1
reward 1
rewood 1
reynolds 1
reznor 1
rh@@ 1
rhapsody 1
rhea 1
rhetoric 1
rhine-@@ 1
rhino 1
rhyno 1
rhys 1
ri 1
riage 1
rial 1
rica 1
rical 1
ricants 1
rice 1
rice-oxley 1
rices 1
richardson 1
richthof@@ 1
rider 1
ridge 1
ridophores 1
rielle 1
riemann 1
ries 1
riesa 1
rife 1
right-hand 1
rij-rousseau 1
rij@@ 1
rikos 1
rin 1
rina 1
ringside 1
rio 1
riot 1
ripe 1
riperton 1
rique 1
ris@@ 1
risks 1
rison 1
rister 1
ristobal 1
rit 1
ritchie 1
ritual 1
ritz 1
ritzwalk 1
rne 1
rob 1
roc 1
roc@@ 1
rocker 1
rockingham 1
roclus 1
rod@@ 1
rode 1
rodham 1
rodia 1
rogen 1
rogers 1
rohito 1
roi 1
roid 1
rolf 1
rollercoaster 1
rollins 1
rollo 1
romance 1
romanesque 1
romania 1
romo@@ 1
romulus 1
roof 1
roosa 1
roosevelt 1
roost 1
root 1
roots 1
ror 1
rore 1
roskilde 1
rostock 1
rot@@ 1
rotting 1
roubaix 1
rouge 1
roundabout 1
rounded 1
rovers 1
row 1
rowan 1
rowling 1
rows 1
rowski 1
roxburghii 1
roy 1
royalist 1
royalty-free 1
rp@@ 1
rpg-26 1
rss 1
rtos 1
ru@@ 1
rubber 1
rubble 1
rubin 1
rudder 1
rude 1
rudrasimha 1
rue 1
rug 1
rugs 1
ruhr 1
rulers 1
ruling 1
rum 1
runestones 1
rung 1
rus 1
russo-turkish 1
ruthlessness 1
rwandan 1
ry@@ 1
rye 1
ryl 1
ryp@@ 1
ryption 1
ré@@ 1
régie 1
rö@@ 1
röbel 1
s-de-la-loire 1
sa@@ 1
saarbrücken 1
saarland 1
saber 1
sable 1
sabu 1
sac 1
sachs 1
sacraments 1
saddam 1
sadhana 1
sadomasoch@@ 1
sadomasochism 1
saf@@ 1
safe 1
safer 1
saff@@ 1
saffron 1
saga 1
sahara 1
sahle 1
sahlin 1
saieff 1
saint-martin 1
saint-victoret 1
saint-étienne 1
saints 1
sakamoto 1
saladin 1
salt-trading 1
salv@@ 1
salvation 1
sam 1
samille 1
sample 1
sampled 1
samples 1
sanc@@ 1
sanctity 1
sang 1
sankt 1
santos 1
santísima 1
sapiens 1
sarandon 1
sarasvati 1
sarbhana 1
sarthe 1
satis 1
satluj 1
satrap 1
satur@@ 1
saturday 1
satyros 1
sauce 1
saugor 1
saur 1
saurs 1
sayer 1
sberg 1
sburg 1
scala 1
scalpels 1
scandentia 1
scandinavian 1
scar 1
scar-atahualpa 1
scar@@ 1
scen@@ 1
scenium 1
scent 1
schalke 1
schatz 1
schedul@@ 1
schemes 1
schidlof 1
schizophrenics 1
schleswig 1
schmidt 1
schneier 1
schock 1
schoenberg 1
scholar 1
scholarships 1
schubert 1
sciences 1
scientious 1
sco@@ 1
scores 1
scotia 1
screen 1
screens 1
scri@@ 1
scribed 1
scrip@@ 1
script 1
scription 1
scripts 1
scriptures 1
sculptor 1
sculptures 1
seals 1
searchable 1
seasonal 1
seasoning 1
secon@@ 1
seconds 1
sections 1
sectors 1
secularism 1
seed 1
seem 1
sefini 1
segment 1
seidenstraße 1
seigneurial 1
seille 1
seized 1
seizures 1
select 1
selects 1
self 1
self-absorbed 1
self-asserting 1
sell@@ 1
sells 1
sement 1
semif@@ 1
sen 1
sen@@ 1
senate 1
senators 1
send 1
senkirchen 1
sense 1
sent@@ 1
sentenced 1
sentences 1
senthal 1
separable 1
separate 1
sephora 1
sepied 1
sepolis 1
sequ@@ 1
ser-based 1
sergeant 1
serials 1
serpent 1
servant 1
servers 1
servicepicasa 1
seshoe-shaped 1
session 1
set@@ 1
settl@@ 1
settled 1
settlers 1
seudonym 1
sev@@ 1
seva 1
seven-year 1
seventeen 1
seville 1
sewhere 1
seyss-inquart 1
sh 1
shabab 1
shad@@ 1
shades 1
shadweep 1
shah 1
shakespearian 1
shalitoe 1
shamim 1
shanghai 1
shape 1
shaped 1
shapes 1
share 1
sharp 1
sharper 1
shatner 1
shaw 1
she@@ 1
shears 1
sheep 1
sheffield 1
sherman 1
shewa 1
shey 1
shift 1
shinachara 1
shingles 1
shinkansen 1
shino 1
shiva 1
shoe 1
shoes 1
shoki 1
shooter 1
shoots 1
shopping 1
short-hand 1
shortened 1
shorter 1
shostakovitch 1
shots 1
shr@@ 1
shrine 1
shropshire 1
shrubs 1
shua 1
shurst 1
shusha 1
shut 1
shutt 1
shuttle 1
si 1
sickly 1
siew 1
sifal 1
sight 1
sights 1
signatures 1
significance 1
sil@@ 1
silence 1
siliu 1
sim@@ 1
similar@@ 1
similarities 1
similarity 1
simosthenurus 1
simpl@@ 1
simpler 1
simplicity 1
simplon 1
simul@@ 1
simulation 1
simultaneous 1
sindh 1
singh 1
singlet 1
sings 1
sinister 1
sinn 1
sion 1
sionic 1
sipim 1
siret 1
siritzky 1
sistan 1
sister 1
sit 1
sits 1
sivry-rance 1
sized 1
sj 1
ska 1
skardu 1
skated 1
skater 1
skaya 1
ske 1
ski 1
skirts 1
skull 1
skytrain 1
slackware 1
slam 1
slang 1
slave-owner 1
slavement 1
slavery 1
slavonic 1
slayer 1
sli@@ 1
slice 1
slid 1
slides 1
slightly 1
slot 1
slough 1
slow 1
slowly 1
smallville 1
sman 1
smart 1
smash 1
smbat 1
smithies 1
smithing 1
smoked 1
smooth 1
smouth 1
smuggling 1
smythe 1
snapped 1
snl 1
snowstorm 1
so-@@ 1
soak 1
soanian 1
soba 1
soc@@ 1
soci@@ 1
sofia 1
softer 1
sohag 1
solano 1
soldier 1
solicited 1
soloists 1
solomon 1
solos 1
solothurn 1
solstice 1
solve 1
solving 1
some@@ 1
someday 1
somme 1
somnia 1
sonabel 1
sonage 1
song@@ 1
sonists 1
sonneberg 1
sony 1
sopa 1
sophene 1
sophie 1
sor 1
sorcerer 1
sorted 1
soundtrack 1
soups 1
sour@@ 1
souri 1
south-east 1
sovi@@ 1
soya 1
soybean 1
soybeans 1
sp3 1
spacing 1
span 1
spaniards 1
spann@@ 1
spans 1
spartans 1
spe@@ 1
spea@@ 1
speaker 1
speaks 1
special@@ 1
specialize 1
specialized 1
specials 1
spect@@ 1
spectating 1
spector 1
spectrally 1
speed 1
spel 1
spelled 1
spelling 1
spend 1
spewed 1
sphere 1
spherical 1
spices 1
spider 1
spielberg 1
spielhaus 1
spillway 1
spin@@ 1
spinosi 1
spiral 1
spiraling 1
spirit 1
spirits 1
spitz-type 1
spokesman 1
spon@@ 1
sponsored 1
sportswear 1
spots 1
spread 1
spreading 1
spring 1
springer 1
springs 1
springville 1
sprinter 1
spurs 1
squar@@ 1
square-@@ 1
square-cut 1
squid 1
sr. 1
sruhe 1
ss@@ 1
ssantenses 1
sse 1
sseau 1
sser 1
ssional 1
ssman 1
st-hardcore 1
stabs 1
stac@@ 1
stache-less 1
stacy 1
stadt 1
stadtroda 1
stafa 1
stag 1
stagnant 1
stalin 1
stallman 1
stan 1
stan@@ 1
stand-up 1
standar@@ 1
standardization 1
standards 1
stanzo 1
star-@@ 1
star-catalog 1
starbird 1
starter 1
starts 1
statehood 1
statement 1
statesmen 1
station@@ 1
stationed 1
statue 1
statutes 1
stay 1
stbite 1
ste@@ 1
steep 1
stefan 1
stegosaurian 1
steiner 1
steinfurt 1
sterdam 1
sternation 1
sterndale 1
stevenage 1
stevens 1
sthenurus 1
stice 1
sticks 1
stieler 1
stification 1
stigious 1
stimulate 1
stimulating 1
stimulus 1
stin 1
stina 1
stitch 1
stitution 1
stman 1
sto 1
stockport 1
stoiber 1
stoke 1
stokowski 1
stomizer 1
stop 1
stop@@ 1
stopped 1
stopper 1
stops 1
stor 1
stor@@ 1
storal 1
stores 1
storyline 1
storylines 1
stouts 1
stown 1
stra@@ 1
straightener 1
straits 1
strange 1
strasburg 1
strateg@@ 1
strations 1
straw 1
straße 1
stre@@ 1
streets 1
strelitz 1
strengthened 1
strengths 1
stress 1
stressed 1
stries 1
strikers 1
stripes 1
stro@@ 1
strokes 1
strong-willed 1
strong@@ 1
struc@@ 1
structural 1
struggled 1
struggles 1
stry 1
stud@@ 1
studylight 1
stunner 1
stylus 1
styn 1
su 1
submarine 1
submerged 1
subscribers 1
subscription 1
substitute 1
subterranean 1
subunguis 1
success@@ 1
sudan 1
sudarium 1
suff@@ 1
suffers 1
sugar 1
suggest 1
suggestion 1
suko 1
sulpice 1
sum@@ 1
sumatra 1
sumed 1
sumoto 1
sums 1
sunflowers 1
suntzeff 1
supercontinent 1
supermarket 1
supermassive 1
supernatural 1
superstar 1
superstars 1
superstition 1
supervolcano 1
supial 1
supplemented 1
supportive 1
suppos@@ 1
sur 1
sure 1
sures 1
surf 1
surfaces 1
surgeon 1
surgeon-superintendent 1
surpass 1
surprise 1
surrection 1
surrounded 1
surv@@ 1
survey@@ 1
surveyors 1
survived 1
surviving 1
survivors 1
susanna 1
sushila 1
suspect 1
suspend 1
suspense 1
sussex 1
sutlej 1
suvs 1
swagger 1
swald 1
swamp 1
swamp@@ 1
swampy 1
swan 1
swana 1
swanger 1
sweatbands 1
sweeney 1
swerve 1
swirls 1
switch 1
swords 1
swot 1
swri 1
sy 1
syd@@ 1
syka 1
sylvanus 1
sym@@ 1
symmetric 1
sympathy 1
symph@@ 1
synchronized 1
systemic 1
t-mobile 1
t-shirt 1
t-shirts 1
t. 1
tabad 1
tac@@ 1
tack@@ 1
tackles 1
tagansko-krasnopresnenskaya 1
tagline 1
tague 1
tahitian 1
tails 1
tal-like 1
tal@@ 1
talents 1
talish 1
talk 1
talked 1
tall 1
tallaiya 1
tamanian 1
tamara 1
tambora 1
tampa 1
tane 1
tangere 1
tanning 1
tantric 1
tantrum 1
tanzania 1
tap 1
tapasya 1
tar@@ 1
tarantino 1
tarascon 1
targets 1
tarja 1
tarn 1
tarvos 1
tary 1
tas 1
tasks 1
tasmania 1
tasmanian 1
tations 1
taught 1
tauran 1
tawa 1
taxi 1
taxis 1
tay 1
tazzmission 1
tch 1
td 1
tdl 1
te@@ 1
tea 1
teach 1
technical 1
technician 1
technologies 1
tecklenburg 1
tedera 1
teenagers 1
teenth 1
teeth 1
tehsils 1
tel 1
telephone 1
teleport 1
templates 1
tempore 1
tengwar 1
tennessee 1
tensions 1
tenth 1
tenzin 1
teotihuacan 1
teresa 1
terflies 1
teries 1
terminated 1
termination 1
terminus 1
tero 1
terror 1
terrorist 1
terrorists 1
tery 1
testament 1
tetrapods 1
tgebouw 1
th-hitchcock 1
th-largest 1
th-rebirth 1
tha 1
thalamocortical 1
thalassa 1
thar 1
thatch 1
the@@ 1
theatrical 1
theim 1
theme 1
themes 1
thenosphere 1
theology 1
theor@@ 1
thered 1
thermal 1
thermouth 1
thernmost 1
theseus 1
thet 1
thetic 1
theus 1
thew 1
thic 1
thicker 1
thidine 1
thieves 1
thile 1
things 1
thinner 1
thirdly 1
thirteen 1
thirteenth 1
thirty-three 1
thma 1
thodox 1
tholins 1
thology 1
thome 1
thompson 1
thomson 1
thony 1
thosphere 1
thoughtful 1
thousand 1
thouse 1
thpiece 1
thplace 1
thread 1
threatened 1
threats 1
three-octave 1
threepenny 1
threesome 1
thriving 1
throne 1
throw 1
thrym 1
thunder@@ 1
thunderstorms 1
thuram 1
thurman 1
thursday 1
thyme 1
thymine 1
thyroidism 1
tially-native 1
tibooburra 1
ticellular 1
ticino 1
ticultural 1
ticut 1
tids 1
tier 1
tierney 1
tific@@ 1
tificial 1
tiger 1
tigers 1
tight 1
tilayers 1
tim@@ 1
timeo 1
timers 1
timidation 1
timized 1
tin 1
tinger 1
tingham 1
tings 1
tints 1
tion@@ 1
tionally 1
tionary 1
tioned 1
tire 1
tirunelveli 1
tistan 1
tit@@ 1
titles 1
tiveness 1
tives 1
tj 1
tld 1
tle 1
tlefish 1
tles 1
tlest 1
to-cab 1
to-novo 1
tob@@ 1
tobin 1
todd 1
toddler 1
toine 1
toivo 1
tokyo 1
told 1
tolerance 1
tolerant 1
tolkien 1
tollensesee 1
toller 1
tom@@ 1
tomatoes 1
tomb 1
ton@@ 1
tongue 1
tonia 1
tonnerre 1
tonwood 1
tony 1
tools 1
toon 1
top-level 1
topics 1
topped 1
torate 1
torch 1
torenversammlung 1
torment 1
tortu@@ 1
toscanini 1
tosine 1
totally 1
touchdown 1
tour@@ 1
tourcoing 1
toured 1
tourists 1
tournaments 1
town@@ 1
toyota 1
tpl 1
tracked 1
tracks 1
traders 1
trading 1
traditions 1
trail 1
trained 1
training 1
traits 1
tranmere 1
tranquilizers 1
transduction 1
transfection 1
transforming 1
transient 1
transit 1
transitioned 1
transm@@ 1
transpor@@ 1
travel 1
travel@@ 1
travels 1
traverses 1
tray 1
trays 1
treat 1
treat@@ 1
treatable 1
treated 1
treatment 1
treatments 1
trek 1
trench 1
trend 1
tresca 1
tresina 1
tress 1
trevor 1
triad 1
triangle 1
triangles 1
triangular 1
tribe 1
tribu@@ 1
tributaries 1
tribute 1
tridge 1
tried 1
trig@@ 1
trigonom@@ 1
trigonometry 1
trincourt 1
trinidad 1
trinity 1
trips 1
triton 1
triumph 1
trivi@@ 1
trivium 1
trohman 1
trojan 1
troposodon 1
trust 1
truth 1
trying 1
tryside 1
ts@@ 1
tsentr 1
tuals 1
tuan 1
tube-based 1
tubes 1
tuileries 1
tulergi 1
tundra 1
tunisia 1
tunnel 1
tunnels 1
tupaiidae 1
tur@@ 1
turbo 1
turkestan 1
turkic 1
turkish 1
turkmenistan 1
turnes 1
turning 1
turns 1
turo 1
turpin 1
tuvaluan 1
tv2 1
tw@@ 1
twent@@ 1
twentieth 1
twenty-two 1
twilight 1
twin 1
twofish 1
twright 1
ty@@ 1
tycoon 1
tyla 1
tyler 1
typeface 1
tyranny 1
tz 1
tzprung-russell 1
tzu 1
ua 1
uaig 1
ualties 1
uardia 1
uate 1
uations 1
ubino 1
ubs 1
ubuntu 1
ubünden 1
uceno 1
uchestan 1
uchida 1
uci 1
uciano 1
uck 1
ucky 1
ucn 1
ud@@ 1
ude 1
udger 1
ueckermünde 1
uefa 1
uel 1
uer 1
uet 1
uffydd 1
ufo 1
uhennna 1
uhin 1
uin 1
ulah 1
ular@@ 1
ulations 1
ulco 1
uler 1
ulic 1
ult 1
ulty 1
ulusar 1
um-@@ 1
um-security 1
uma 1
umatic 1
umberjack 1
umberland 1
umbl@@ 1
ument 1
umimyrskyssä 1
uminate 1
ummin 1
ummy 1
umnus 1
umping 1
ums 1
unable 1
unacceptable 1
unachal 1
unavailable 1
unavut 1
unaware 1
unbinding 1
uncertainty 1
unchy 1
uncle 1
und 1
undant 1
underlying 1
underside 1
undity 1
undotted 1
undra 1
unearthed 1
unemployment 1
unfamiliar 1
unfold 1
ung 1
uniformed 1
uniforms 1
unintentionally 1
uninterrupted 1
unions 1
unique 1
unite 1
unities 1
unius 1
univers@@ 1
unless 1
unlik@@ 1
unmingled 1
unna 1
unnoticed 1
unpipelined 1
unstable 1
untouched 1
upland 1
uploaded 1
upper-@@ 1
upper-level 1
urance 1
urartu 1
urgical 1
urinary 1
uro 1
urquhart 1
urs 1
ursula 1
urysm 1
usalem 1
ushimi 1
usicaä 1
usively 1
uson 1
usque 1
uss 1
ussi-ambeno 1
usted 1
usual 1
usucha 1
ut-shaped 1
utah 1
uthausen 1
util@@ 1
ution 1
uts 1
uture 1
ux 1
uxe 1
v. 1
va 1
vac@@ 1
vacuum 1
val 1
valais 1
valencia 1
values 1
valve 1
vampire 1
vanand 1
vanilla 1
vapor 1
variants 1
variations 1
vas 1
vate 1
vatican 1
vaud 1
vc 1
vedas 1
vegas 1
vegetables 1
veh@@ 1
veins 1
veliest 1
velodrome 1
velour 1
velveteen 1
ven 1
ven@@ 1
venomous 1
ventilation 1
vention 1
ventricles 1
ventricular 1
vents 1
ventura 1
venture 1
venules 1
venus 1
ver 1
verage 1
verb 1
verbal 1
verde 1
verde-type 1
vergence 1
vergno 1
veries 1
veronica 1
verrier 1
vers 1
versy 1
vertebrae 1
vertebrates 1
vertical 1
vest 1
vesta 1
veston 1
vetian 1
vezina 1
vian 1
vibration 1
vibrato 1
vic@@ 1
vices 1
viciously 1
victims 1
victorian 1
vidal 1
vieques 1
viest 1
viewed 1
vii 1
vikidia 1
viking 1
vilja 1
vill@@ 1
villeneuve-loubet 1
vin 1
vince 1
vinism 1
vinton 1
violates 1
violent 1
violet 1
violin 1
vir@@ 1
virondo 1
visit 1
visitors 1
visually 1
vitreous 1
vitruvius 1
viv@@ 1
viva 1
vivaldi 1
vladimir 1
vm 1
vocabulary 1
vocalists 1
voiced 1
vol@@ 1
volcanic 1
volcanoes 1
volokolamskaya 1
voltages 1
volumes 1
vomiting 1
vor 1
vor@@ 1
vorticity 1
voters 1
városi 1
vä@@ 1
växjö 1
wa 1
wa@@ 1
waffen-ss 1
wah@@ 1
waheed 1
wahili 1
wahlenbergia 1
waimea 1
wait 1
wak@@ 1
waking 1
wal@@ 1
wald 1
walden 1
wallace 1
walloon 1
walt 1
wandsworth 1
wang 1
wantage 1
wants 1
wardi 1
wardrobe 1
wards 1
waren 1
warleader 1
warnings 1
warrington 1
warriors 1
wars 1
wasawa 1
wasp 1
wassce 1
watauga 1
watchman 1
waterfall 1
watermelon 1
watermill 1
watonga 1
watson-crick 1
wattles 1
wavy 1
waxing 1
waynflete 1
we@@ 1
weaker 1
weakness 1
weaknesses 1
wears 1
weathered 1
weaver 1
webbed 1
wedding 1
weed 1
weekly 1
ween 1
wehrgeistige 1
wehrmacht 1
weigh 1
weighed 1
weiland 1
wel@@ 1
welcomes 1
well-crafted 1
wembley 1
wendel 1
wep 1
were-rabbit 1
werth 1
wesfarmers 1
wester@@ 1
westerbork 1
westward 1
wetlands 1
wh@@ 1
whammy 1
wheel 1
wheelchair 1
whip 1
whisenhunt 1
whitbourne 1
why 1
wi@@ 1
wich 1
wick 1
wicz 1
widescreen 1
widor 1
wields 1
wien 1
wif@@ 1
wiic 1
wikia 1
wil@@ 1
wilbur 1
wilhelmina 1
wilia 1
win@@ 1
windhaven 1
windmill 1
wine 1
winners 1
wishaw 1
wisterliebe 1
with@@ 1
wizard 1
wizardry 1
wlb-306 1
wo@@ 1
wok 1
wol@@ 1
wolgemut 1
wolk 1
wollstonecraft 1
wombat 1
wong 1
woodcut 1
woodford 1
woodland 1
woodrow 1
woods 1
woolf 1
woolshed 1
workbench 1
workstation 1
world@@ 1
worship@@ 1
worthing 1
wrecked 1
wrest@@ 1
wrestlemania 1
wrestlers 1
writings 1
wrong 1
wtwo 1
wu 1
wycliffe 1
x-stream 1
x-type 1
xi 1
xiliary 1
xon 1
xton 1
y-blue 1
yackandandah 1
yade 1
yah 1
yan 1
yankees 1
yant 1
yarn 1
yatso 1
yazoo 1
ydia 1
ydor 1
yds 1
year-end 1
year-round 1
yed 1
yehudi 1
yellowish-brown 1
yen 1
yerful 1
ygen 1
yields 1
yl 1
ylan 1
yland 1
yle 1
ylphenidate 1
ylus 1
ylène 1
ymion 1
ymium 1
ymnastics 1
yn@@ 1
yness 1
ynne 1
ynomial 1
yntz 1
ynx 1
yo-yo 1
yock 1
yoko 1
yone 1
yor@@ 1
yorkshire 1
youn@@ 1
yourself 1
youth 1
ypal 1
ypse 1
yptographic 1
yrus 1
yscus 1
yssey 1
yst 1
yton 1
ytterbium 1
yun 1
yvette 1
zac 1
zadok 1
zaiten 1
zajtich 1
zalewski 1
zann 1
zapper 1
zburg 1
ze@@ 1
zealand 1
zed 1
zelius 1
zelman 1
zenvorstadt 1
zerum 1
zeta 1
zeus 1
zgebirge 1
zipingpu 1
zoar 1
zollern 1
zoo 1
zoom 1
zorawar 1
zos 1
zoutleeuw 1
zschopau 1
zub 1
zur 1
zy 1
zzo 1
zürich 1
~ 1
± 1
½ 1
ß 1
ßenhain 1
á@@ 1
ández 1
âteau 1
än@@ 1
ärki 1
è@@ 1
èche 1
é@@ 1
ée 1
éin 1
éla 1
éon 1
épartement 1
épendants 1
í@@ 1
ía 1
ña 1
ò 1
ólafur 1
ô@@ 1
ö@@ 1
östergötland 1
ørk 1
ühn 1
ürk 1
‘ 1
madeupword0000 0
madeupword0001 0
madeupword0002 0
madeupword0003 0
madeupword0004 0
madeupword0005 0
madeupword0006 0
