. 2845
the 2199
, 1061
of 947
in 884
a 843
and 775
is 678
to 566
it 506
was 436
on 249
he 245
for 238
&apos;s 223
by 222
&quot; 197
from 189
with 186
are 178
an 173
as 173
they 145
that 140
were 134
or 128
at 127
this 125
be 108
has 106
his 96
( 95
) 95
also 90
can 83
first 82
have 76
its 76
other 72
one 70
after 69
she 68
had 65
used 62
many 58
not 57
two 56
&apos;t 54
their 54
k@@ 53
people 53
into 51
when 51
her 50
-@@ 48
name 47
city 46
about 44
been 44
made 44
most 44
some 44
became 42
ing 42
there 42
: 41
but 41
more 41
than 41
ed 40
over 39
s 39
time 39
ar@@ 38
us 38
g@@ 37
l@@ 37
between 36
d@@ 36
h@@ 36
like 36
town 36
which 36
1 35
may 35
these 35
all 34
american 34
because 34
called 34
e@@ 34
es 34
created 33
during 33
ers 33
hurricane 33
part 33
al@@ 32
area 32
f@@ 32
in@@ 32
known 32
states 32
world 32
er 31
i 31
o 31
&apos; 30
b@@ 30
before 30
district 30
found 30
named 30
new 30
united 30
c@@ 29
ch@@ 29
end 29
n@@ 29
series 29
war 29
would 29
year 29
2 28
county 28
him 28
music 28
- 27
3 27
show 27
i@@ 26
m@@ 26
o@@ 26
p@@ 26
school 26
a@@ 25
high 25
often 25
only 25
storm 25
times 25
years 25
/ 24
de 24
different 24
early 24
em@@ 24
land 24
north 24
played 24
state 24
born 23
east 23
er@@ 23
king 23
out 23
region 23
system 23
up 23
use 23
west 23
y 23
century 22
later 22
water 22
comes 21
di@@ 21
german 21
led 21
national 21
since 21
species 21
album 20
c 20
came 20
co@@ 20
formed 20
home 20
if 20
number 20
or@@ 20
seen 20
small 20
south 20
then 20
% 19
2@@ 19
around 19
bl@@ 19
do 19
e 19
france 19
game 19
government 19
line 19
river 19
same 19
them 19
three 19
took 19
while 19
2006 18
2007 18
ab@@ 18
ac@@ 18
back 18
band 18
built 18
capital 18
con@@ 18
dis@@ 18
mar@@ 18
moved 18
near 18
still 18
t 18
until 18
using 18
will 18
4@@ 17
an@@ 17
as@@ 17
at@@ 17
ate 17
august 17
be@@ 17
el@@ 17
england 17
family 17
film 17
football 17
great 17
ia 17
j@@ 17
large 17
last 17
li@@ 17
ma@@ 17
main 17
mo@@ 17
n 17
orchestra 17
president 17
rock 17
several 17
son 17
team 17
very 17
western 17
you 17
30 16
ad@@ 16
al 16
another 16
ated 16
become 16
could 16
en@@ 16
english 16
germany 16
group 16
gu@@ 16
it@@ 16
june 16
live 16
located 16
million 16
ne@@ 16
no 16
place 16
po@@ 16
released 16
season 16
september 16
so 16
station 16
tropical 16
won 16
word 16
work 16
20 15
4 15
5 15
6@@ 15
7 15
areas 15
ation 15
being 15
book 15
cl@@ 15
color 15
did 15
el 15
es@@ 15
four 15
french 15
games 15
ha@@ 15
history 15
island 15
k 15
m 15
pl@@ 15
population 15
said 15
see 15
shows 15
started 15
term 15
under 15
who 15
written 15
8 14
als 14
based 14
car@@ 14
common 14
d 14
december 14
died 14
discovered 14
however 14
is@@ 14
july 14
lo@@ 14
low 14
means 14
members 14
now 14
on@@ 14
par@@ 14
parts 14
popular 14
similar 14
through 14
well 14
17@@ 13
2005 13
7@@ 13
against 13
am@@ 13
began 13
caused 13
central 13
computer 13
en 13
et@@ 13
former 13
general 13
good 13
human 13
ic 13
im@@ 13
km 13
larger 13
le@@ 13
life 13
make 13
making 13
names 13
original 13
others 13
p 13
public 13
today 13
white 13
10 12
12@@ 12
1994 12
1998 12
2002 12
40 12
6 12
ag@@ 12
appeared 12
best 12
both 12
british 12
championship 12
considered 12
country 12
de@@ 12
don 12
ed@@ 12
ex@@ 12
fire 12
food 12
include 12
jo@@ 12
largest 12
league 12
left 12
light 12
london 12
long 12
man 12
man@@ 12
member 12
might 12
modern 12
next 12
play 12
province 12
roman 12
sea 12
second 12
ted 12
third 12
university 12
v 12
what 12
&amp; 11
1997 11
1@@ 11
2003 11
2008 11
3@@ 11
90 11
age 11
australian 11
center 11
data 11
del@@ 11
division 11
ds 11
each 11
ended 11
established 11
europe 11
event 11
example 11
five 11
house 11
ian 11
important 11
instead 11
james 11
language 11
list 11
miles 11
mostly 11
novel 11
november 11
off 11
ons 11
op@@ 11
pa@@ 11
park 11
ph@@ 11
power 11
published 11
republic 11
such 11
th 11
type 11
video 11
way 11
went 11
where 11
16@@ 10
2001 10
50 10
9 10
9@@ 10
ant 10
april 10
ar 10
arms 10
army 10
art 10
atlantic 10
available 10
ber@@ 10
black 10
bo@@ 10
changed 10
china 10
church 10
company 10
council 10
ded 10
developed 10
do@@ 10
down 10
e-@@ 10
empire 10
february 10
few 10
g 10
got 10
gra@@ 10
h 10
hall 10
her@@ 10
ic@@ 10
ics 10
ies 10
included 10
includes 10
john 10
ke 10
key 10
l 10
leader 10
movie 10
ol@@ 10
organization 10
ot@@ 10
own 10
per@@ 10
pre@@ 10
received 10
saint 10
science 10
set 10
standard 10
title 10
too 10
top 10
u 10
uk 10
works 10
worldwide 10
wrestling 10
$ 9
&apos;re 9
,000 9
0 9
18 9
2004 9
22 9
able 9
africa 9
again 9
ap@@ 9
asia 9
ates 9
ations 9
au@@ 9
av@@ 9
awards 9
b 9
bal@@ 9
bank 9
bra@@ 9
club 9
coast 9
code 9
create 9
cyclone 9
day 9
death 9
dec@@ 9
ding 9
districts 9
doesn 9
eastern 9
ent@@ 9
ents 9
fame 9
for@@ 9
founded 9
free 9
given 9
gro@@ 9
having 9
higher 9
id@@ 9
ii 9
india 9
indian 9
ine 9
inter@@ 9
islands 9
ist 9
lake 9
law 9
metal 9
min@@ 9
minister 9
mon@@ 9
moon 9
mother 9
na@@ 9
night 9
ning 9
nor@@ 9
oc@@ 9
old 9
party 9
pe@@ 9
person 9
plants 9
political 9
radio 9
right 9
service 9
seven 9
side 9
single 9
smaller 9
street 9
theory 9
ts 9
units 9
uses 9
wide 9
working 9
wwe 9
x 9
00 8
10@@ 8
11 8
12 8
14 8
19th 8
2000 8
8@@ 8
across 8
air 8
along 8
always 8
any 8
asteroids 8
bar@@ 8
battle 8
big 8
cape 8
charles 8
control 8
damage 8
days 8
destroyed 8
development 8
didn 8
done 8
earned 8
ec@@ 8
edge 8
ell 8
ent 8
european 8
even 8
field 8
half 8
head 8
here 8
ice 8
ill@@ 8
independent 8
international 8
ism 8
just 8
ko@@ 8
ks 8
le 8
lin@@ 8
little 8
major 8
march 8
match 8
mc@@ 8
men 8
middle 8
mountain 8
mu@@ 8
municipality 8
must 8
no@@ 8
non-@@ 8
northern 8
ocean 8
october 8
office 8
official 8
organized 8
pacific 8
philharmonic 8
places 8
player 8
point 8
pol@@ 8
police 8
pos@@ 8
position 8
possible 8
pressure 8
pro@@ 8
queen 8
range 8
reached 8
road 8
royal 8
s. 8
say 8
sent 8
signal 8
size 8
song 8
status 8
support 8
symphony 8
television 8
ting 8
together 8
un@@ 8
union 8
usually 8
ve 8
worked 8
york 8
young 8
# 7
&apos;@@ 7
0s 7
1,@@ 7
12th 7
13@@ 7
15 7
15@@ 7
18@@ 7
1967 7
1970 7
19@@ 7
23 7
26 7
28 7
5@@ 7
african 7
ak@@ 7
ancient 7
ane 7
ann@@ 7
announced 7
ard 7
aren 7
ating 7
ator 7
attended 7
australia 7
away 7
bi@@ 7
blue 7
bro@@ 7
bur@@ 7
business 7
ca@@ 7
california 7
catholic 7
change 7
chocolate 7
christian 7
coat 7
come 7
composer 7
core 7
cre@@ 7
culture 7
disease 7
divided 7
ea@@ 7
earth 7
eg@@ 7
electric 7
ell@@ 7
end@@ 7
energy 7
especially 7
est 7
exist 7
fantasy 7
fl@@ 7
florida 7
ful 7
george 7
give 7
go@@ 7
god 7
greek 7
hit 7
hon@@ 7
how 7
il 7
il@@ 7
ins 7
j. 7
ker 7
lands 7
lead 7
lost 7
lot 7
ly 7
mag@@ 7
makes 7
mal@@ 7
michael 7
move 7
natural 7
never 7
over@@ 7
page 7
per 7
period 7
professional 7
project 7
r. 7
records 7
red 7
refer 7
ring 7
rule 7
russia 7
ry 7
san 7
scott 7
services 7
short 7
six 7
spanish 7
st 7
stopped 7
storms 7
story 7
strong 7
success 7
surface 7
switzerland 7
systems 7
t@@ 7
ter 7
trees 7
tv 7
wasn 7
wife 7
william 7
win 7
within 7
without 7
° 7
– 7
+ 6
16th 6
17 6
19 6
1990 6
1995 6
21 6
29 6
above 6
academy 6
active 6
actor 6
added 6
af@@ 6
ages 6
alabama 6
allow 6
america 6
and@@ 6
angle 6
ants 6
armenian 6
ass@@ 6
astronomers 6
ats 6
attacked 6
author 6
bad 6
bbc 6
beginning 6
begins 6
ben@@ 6
berlin 6
better 6
bill 6
blues 6
body 6
border 6
boxing 6
br@@ 6
bridge 6
brought 6
category 6
character 6
children 6
cities 6
civil 6
claimed 6
classical 6
col@@ 6
com@@ 6
commune 6
consists 6
cor@@ 6
cou@@ 6
countries 6
cover 6
cut 6
designed 6
dog 6
dr@@ 6
dra@@ 6
du@@ 6
dy 6
ear@@ 6
effect 6
elements 6
els 6
ep@@ 6
ets 6
ev@@ 6
events 6
every 6
external 6
f 6
famous 6
fer@@ 6
films 6
fish 6
flag 6
fort 6
fu@@ 6
ga@@ 6
ge@@ 6
go 6
going 6
gold 6
gr@@ 6
greater 6
green 6
groups 6
growing 6
heart 6
hel@@ 6
held 6
ho@@ 6
hot 6
ids 6
ig@@ 6
iii 6
images 6
information 6
ings 6
internet 6
ion 6
ireland 6
iv@@ 6
january 6
joined 6
kingdom 6
la 6
lam@@ 6
late 6
latin 6
lea@@ 6
len@@ 6
length 6
less 6
lines 6
links 6
linux 6
lived 6
local 6
lu@@ 6
mat@@ 6
ment 6
method 6
mexico 6
native 6
nearby 6
ni@@ 6
normal 6
ob@@ 6
officers 6
once 6
open 6
os 6
out@@ 6
pakistan 6
pal@@ 6
passes 6
pat@@ 6
performed 6
primary 6
product 6
programs 6
ps 6
put 6
rail 6
re@@ 6
related 6
release 6
richard 6
role 6
room 6
se 6
ses 6
shown 6
singer 6
site 6
sits 6
software 6
sometimes 6
songs 6
sound 6
stallone 6
starred 6
start 6
summer 6
taken 6
takes 6
telescope 6
ten 6
terms 6
though 6
true 6
um 6
words 6
wrote 6
your 6
0@@ 5
1.@@ 5
13 5
16 5
1941 5
1973 5
1974 5
1977 5
2,000 5
20@@ 5
24 5
27 5
3.@@ 5
31 5
5.@@ 5
60 5
95 5
9th 5
; 5
academic 5
acts 5
ad 5
alexander 5
almost 5
am 5
ama 5
ang@@ 5
ant@@ 5
anti-@@ 5
anti@@ 5
appears 5
arch@@ 5
arts 5
ases 5
ash@@ 5
attack 5
aw@@ 5
awarded 5
beatles 5
below 5
bon@@ 5
books 5
boston 5
bot@@ 5
boy 5
bran@@ 5
branch 5
broke 5
building 5
buildings 5
businesses 5
can@@ 5
canadian 5
cap@@ 5
card 5
chan@@ 5
characters 5
che@@ 5
chosen 5
chris 5
citizens 5
clar@@ 5
class 5
co-@@ 5
codes 5
cold 5
community 5
concerts 5
conditions 5
conference 5
congress 5
connected 5
contains 5
controlled 5
councils 5
count 5
counties 5
crossed 5
crow@@ 5
cup 5
current 5
cut@@ 5
dates 5
dem@@ 5
department 5
disney 5
distance 5
dna 5
does 5
due 5
ecw 5
effects 5
ena 5
encryption 5
ends 5
enough 5
entered 5
equal 5
ess 5
ess@@ 5
examples 5
face 5
facility 5
feature 5
feet 5
festival 5
fin@@ 5
following 5
forces 5
form@@ 5
formation 5
forms 5
francisco 5
front 5
gal@@ 5
gar@@ 5
gardens 5
ge 5
gen@@ 5
ger@@ 5
get 5
golden 5
gouda 5
grow 5
happened 5
har@@ 5
help 5
henry 5
highest 5
himself 5
historic 5
holy 5
hour 5
ial 5
ical 5
ically 5
ile 5
ill 5
ines 5
ing@@ 5
int@@ 5
ir@@ 5
iron 5
isn 5
issues 5
ist@@ 5
ists 5
iz@@ 5
ja 5
jesus 5
kar@@ 5
kn@@ 5
komodo 5
ku@@ 5
la@@ 5
lakes 5
legs 5
ler 5
location 5
longer 5
look 5
looks 5
magazine 5
mammals 5
mario 5
martin 5
material 5
me@@ 5
medical 5
merged 5
met@@ 5
mi@@ 5
mice 5
military 5
months 5
mor@@ 5
movement 5
much 5
multiple 5
musical 5
nar@@ 5
nations 5
nature 5
ness 5
netherlands 5
network 5
nic@@ 5
northeast 5
not@@ 5
off@@ 5
om@@ 5
oper@@ 5
opera 5
organic 5
originally 5
ov@@ 5
ow@@ 5
ox@@ 5
parliament 5
paul 5
pi@@ 5
pic@@ 5
placed 5
pool 5
pr@@ 5
previous 5
prime 5
prize 5
problems 5
process 5
production 5
pu@@ 5
punk 5
quantum 5
race 5
railway 5
raised 5
recorded 5
remained 5
reported 5
result 5
returned 5
rights 5
rise 5
rivers 5
robert 5
satellite 5
schools 5
severe 5
sheppard 5
ship 5
showed 5
solar 5
source 5
space 5
square 5
staff 5
stars 5
stories 5
structure 5
studied 5
study 5
style 5
sweden 5
swiss 5
symbol 5
teams 5
territories 5
texas 5
thing 5
those 5
thought 5
tive 5
ton 5
tornado 5
towns 5
trade 5
train 5
ty 5
types 5
un 5
upper 5
valley 5
van 5
version 5
victoria 5
w@@ 5
wales 5
wanted 5
web 5
winds 5
wood 5
yang 5
z 5
zero 5
² 5
! 4
,@@ 4
0,000 4
14@@ 4
1850 4
187@@ 4
1938 4
1944 4
194@@ 4
1961 4
1969 4
1980s 4
1993 4
200 4
2009 4
25@@ 4
37 4
54 4
600 4
8th 4
98 4
ac 4
act 4
activities 4
adults 4
aid 4
air@@ 4
ally 4
although 4
among 4
amount 4
analysis 4
ance 4
anim@@ 4
animated 4
ans 4
appear 4
approximately 4
architecture 4
arm@@ 4
armenia 4
ary 4
associated 4
association 4
asteroid 4
atomic 4
audio 4
auth@@ 4
authority 4
avoid 4
award 4
ba@@ 4
bad@@ 4
baseball 4
bat@@ 4
beach 4
beat 4
believe 4
bet@@ 4
bible 4
bill@@ 4
bir@@ 4
birth 4
bit 4
block 4
boat 4
boosh 4
britannica 4
bu@@ 4
but@@ 4
call 4
camp@@ 4
canada 4
car 4
carbon 4
carolina 4
carter 4
case 4
cast@@ 4
cathedral 4
cell 4
cent@@ 4
centre 4
certain 4
ch 4
char@@ 4
chinese 4
cho@@ 4
christmas 4
churches 4
clear 4
cm 4
co 4
college 4
colony 4
comedy 4
committee 4
communities 4
conductor 4
construction 4
continued 4
contrac@@ 4
cost 4
cr@@ 4
creating 4
cricket 4
cross 4
d-@@ 4
dan@@ 4
dance 4
dark 4
daughter 4
deep 4
defined 4
depression 4
der 4
des 4
design 4
designation 4
designs 4
despite 4
diag@@ 4
dies 4
difficult 4
digital 4
director 4
discovery 4
documents 4
drink 4
du 4
ean 4
easily 4
economic 4
election 4
eleven 4
ens 4
enter 4
enti@@ 4
eral 4
est@@ 4
eth@@ 4
eus 4
exchange 4
ey 4
factory 4
fans 4
far 4
far@@ 4
farming 4
father 4
featured 4
females 4
ff 4
final 4
financial 4
finished 4
florence 4
flying 4
followed 4
ford 4
form 4
fossils 4
fourth 4
frank 4
fre@@ 4
gas 4
gave 4
ger 4
gi@@ 4
gold@@ 4
goods 4
gran@@ 4
greatest 4
growth 4
ham 4
hand 4
happen 4
he@@ 4
hea@@ 4
health 4
hill 4
hip 4
hockey 4
hol@@ 4
hong 4
hum@@ 4
hy@@ 4
ier 4
inches 4
including 4
increased 4
influence 4
ining 4
inner 4
inside 4
inst@@ 4
io 4
ip@@ 4
ish 4
islam 4
iso 4
issue 4
italian 4
itions 4
ity 4
ium 4
japanese 4
jobs 4
ju@@ 4
keeps 4
ki 4
kill@@ 4
killed 4
kong 4
kurt 4
land@@ 4
languages 4
lar@@ 4
lem@@ 4
les@@ 4
level 4
lim@@ 4
lit@@ 4
lives 4
living 4
lizard 4
loc@@ 4
long@@ 4
ma 4
mail 4
males 4
manchester 4
mass 4
matter 4
me 4
mean 4
meaning 4
media 4
met 4
meth@@ 4
micro@@ 4
minute 4
miss@@ 4
mission 4
mississippi 4
money 4
mun@@ 4
municipalities 4
mus@@ 4
museum 4
muslims 4
ne 4
nearly 4
ner 4
new@@ 4
nine 4
northwest 4
norwegian 4
ns 4
nu@@ 4
numerous 4
obtained 4
occur 4
occurred 4
od@@ 4
ological 4
oo@@ 4
orbit 4
organ@@ 4
ots 4
our 4
outer 4
outside 4
ownership 4
package 4
pages 4
paris 4
passed 4
pen@@ 4
pet@@ 4
physics 4
planet 4
play@@ 4
poland 4
politician 4
pon@@ 4
port 4
powerful 4
press 4
prisoners 4
products 4
program 4
proposed 4
protocol 4
pump 4
r 4
re 4
record 4
referred 4
refers 4
religious 4
responsible 4
return 4
ross 4
run 4
sacred 4
santa 4
satan 4
saw 4
scandinavia 4
scientific 4
scientists 4
seat 4
secretary 4
senior 4
served 4
serves 4
ships 4
should 4
sides 4
signed 4
silver 4
simple 4
sing 4
singing 4
sixth 4
snow 4
social 4
sold 4
solid 4
southeastern 4
southern 4
southwest 4
soviet 4
special 4
split 4
sports 4
stage 4
star 4
stay 4
sted 4
stein 4
stuart 4
supporting 4
table 4
taiwan 4
take 4
taking 4
talent 4
taylor 4
tells 4
temperatures 4
temple 4
territory 4
themselves 4
ths 4
tic 4
tion 4
tip 4
tom 4
tour 4
traditional 4
transferred 4
translation 4
transport 4
triple 4
trying 4
turned 4
ul@@ 4
unit 4
universal 4
urban 4
ure 4
users 4
various 4
versions 4
village 4
visible 4
von 4
voyager 4
walk 4
waters 4
ways 4
wear 4
website 4
wheat 4
why 4
wikipedia 4
wild 4
wilson 4
woman 4
women 4
writers 4
wwf 4
.. 3
.@@ 3
0.@@ 3
00@@ 3
1.5 3
1002 3
11@@ 3
14th 3
166 3
180@@ 3
186@@ 3
1887 3
1919 3
1937 3
1945 3
1946 3
1952 3
1960s 3
1975 3
1979 3
1980 3
1983 3
1985 3
1986 3
1987 3
1991 3
1992 3
1996 3
1999 3
1st 3
200,000 3
25 3
2nd 3
3,@@ 3
300 3
3166 3
36 3
3rd 3
4,@@ 3
45 3
5,@@ 3
500 3
51 3
52 3
56 3
62 3
64 3
65 3
700 3
76 3
78 3
80 3
87 3
ability 3
abor@@ 3
absorbed 3
according 3
accounts 3
ach@@ 3
action 3
activity 3
actors 3
adams 3
adi@@ 3
administrative 3
admir@@ 3
adopted 3
aff@@ 3
afl 3
afterward 3
ago 3
agreement 3
aircraft 3
aired 3
ake 3
albert 3
albums 3
alfred 3
alist 3
all@@ 3
alli@@ 3
alliance 3
allowed 3
allows 3
alpha 3
alpha@@ 3
alphabet 3
alternate 3
analog 3
angles 3
anguidae 3
ani 3
animal 3
animals 3
ann 3
appearance 3
appl@@ 3
apple 3
applications 3
approval 3
aries 3
armed 3
art@@ 3
article 3
artist 3
ash 3
asked 3
assist 3
assists 3
ators 3
att@@ 3
au 3
austria 3
austrian 3
authors 3
ay@@ 3
az@@ 3
b. 3
ba 3
ball 3
bapt@@ 3
bar 3
bas@@ 3
bass 3
battalion 3
bay 3
bay@@ 3
bc 3
bce 3
becomes 3
believed 3
bell 3
binary 3
birds 3
blood 3
blowfish 3
bo 3
bodies 3
bonham 3
bottom 3
bought 3
boundary 3
bowl 3
box 3
boys 3
bre@@ 3
break 3
breakdown 3
breaking 3
brian 3
bridges 3
britain 3
broken 3
bru@@ 3
buffalo 3
buil@@ 3
bul@@ 3
bun@@ 3
bush 3
by@@ 3
byzantine 3
c. 3
cabinet 3
cal@@ 3
cameron 3
cancer 3
cane 3
capitol 3
caribbean 3
cat@@ 3
cause 3
cave 3
cello 3
census 3
centuries 3
cer@@ 3
chain 3
championships 3
chancellor 3
changes 3
charlotte 3
chart 3
chem@@ 3
chemical 3
ches 3
chess 3
chief 3
choir 3
chose 3
christians 3
cin@@ 3
circulation 3
cla@@ 3
claim 3
classified 3
clinton 3
clos@@ 3
close 3
coach 3
coal 3
colonel 3
color@@ 3
colors 3
combat 3
commercial 3
commun@@ 3
comp@@ 3
compan@@ 3
complete 3
completed 3
completely 3
composition 3
concer@@ 3
conservation 3
constantinople 3
contact 3
continent 3
continents 3
convection 3
cooking 3
cool 3
coordinates 3
cop@@ 3
corporation 3
costs 3
court 3
covered 3
covers 3
crash 3
craters 3
creates 3
criminals 3
crowd 3
cu@@ 3
cur@@ 3
da 3
da@@ 3
dam 3
danish 3
dar@@ 3
debut 3
debuted 3
declined 3
decre@@ 3
defense 3
democratic 3
dep@@ 3
dependent 3
der@@ 3
desc@@ 3
describe 3
develop@@ 3
device 3
differences 3
digits 3
din@@ 3
direct 3
directed 3
distributions 3
dogs 3
dol@@ 3
donald 3
dor@@ 3
down@@ 3
dragon 3
drawing 3
dri@@ 3
drug 3
dundee 3
dur@@ 3
ea 3
eared 3
educational 3
een 3
eggs 3
egypt 3
eight 3
eighth 3
either 3
electr@@ 3
electrical 3
electrification 3
elizabeth 3
em 3
enc@@ 3
ence 3
enced 3
endangered 3
ender 3
ending 3
eng@@ 3
entertainment 3
entirely 3
ently 3
equ@@ 3
era 3
esch@@ 3
ese 3
essjay 3
estim@@ 3
ethnic 3
ever@@ 3
evidence 3
except 3
executive 3
expected 3
extratropical 3
ey@@ 3
f-@@ 3
failure 3
fast 3
fastest 3
fe@@ 3
federal 3
federation 3
fi@@ 3
fic@@ 3
fiction 3
fields 3
fight 3
fil@@ 3
find 3
fine 3
fit 3
flight 3
flow 3
flu@@ 3
focused 3
folk 3
follow 3
follows 3
footballer 3
force 3
foreign 3
forming 3
forth 3
foundation 3
fr@@ 3
franchise 3
franklin 3
frederick 3
gained 3
garden 3
gas@@ 3
gay 3
gear 3
gen 3
gener@@ 3
genocide 3
genre 3
genres 3
georgia 3
gg@@ 3
gh@@ 3
global 3
goaltender 3
goes 3
gordon 3
gothic 3
gram@@ 3
gravity 3
green@@ 3
grew 3
ground 3
grown 3
grows 3
gun 3
guns 3
h. 3
hab@@ 3
hair 3
han 3
happens 3
har 3
hardy 3
harv@@ 3
hawaii 3
headquarters 3
hearts 3
helene 3
helped 3
helps 3
henderson 3
heritage 3
high-@@ 3
high@@ 3
hil@@ 3
hindenburg 3
hold 3
honduras 3
honor 3
hop@@ 3
hor@@ 3
hospital 3
hours 3
houses 3
hubble 3
hughes 3
humans 3
hun@@ 3
hundred 3
hydro@@ 3
ich 3
id 3
idea 3
ideas 3
ides 3
ied 3
igh@@ 3
ight 3
ilia 3
imperial 3
independence 3
individual 3
individuals 3
industries 3
ined 3
influ@@ 3
injury 3
inspired 3
introduced 3
invasion 3
involved 3
ions 3
ious 3
ire 3
irish 3
irs 3
ison 3
israel 3
italy 3
ited 3
ized 3
jack 3
jacques 3
jan@@ 3
japan 3
jar@@ 3
jer@@ 3
jews 3
job 3
jupiter 3
k. 3
kan@@ 3
karl 3
ked 3
ker@@ 3
ki@@ 3
kind 3
king@@ 3
kings 3
know 3
laborers 3
lan@@ 3
lark 3
lasted 3
launched 3
laur@@ 3
leading 3
leads 3
legacy 3
legal 3
les 3
let 3
letters 3
lev@@ 3
levels 3
li 3
libr@@ 3
libyan 3
lie 3
limbs 3
lisa 3
liver 3
log@@ 3
loo@@ 3
lords 3
los 3
loss 3
louis 3
love 3
ls 3
ly@@ 3
lyn@@ 3
m-@@ 3
mac@@ 3
machine 3
macro 3
mainly 3
mainstream 3
manager 3
mann 3
maps 3
marie 3
mark 3
marriage 3
married 3
martial 3
mary 3
matches 3
mathematics 3
matrix 3
meant 3
meanwhile 3
measured 3
mechan@@ 3
mechanical 3
mechanics 3
medieval 3
mediterranean 3
mem@@ 3
men@@ 3
mend@@ 3
mer@@ 3
metallic 3
metres 3
mi 3
mic@@ 3
minist@@ 3
minnie 3
minor 3
mir@@ 3
mit@@ 3
mobile 3
moderate 3
monastery 3
mot@@ 3
motion 3
motto 3
mountains 3
moving 3
mph 3
ms 3
multi-@@ 3
musician 3
métis 3
nam@@ 3
nav@@ 3
naz@@ 3
neck 3
need 3
needed 3
negoti@@ 3
neptune 3
ner@@ 3
nervous 3
net@@ 3
neutr@@ 3
neutral 3
ney 3
nobel 3
nose 3
noted 3
nov@@ 3
novels 3
oak 3
observed 3
ocks 3
older 3
ole 3
oliver 3
omet@@ 3
onic 3
order 3
orders 3
ored 3
org@@ 3
organisms 3
origin 3
origins 3
ors 3
otic 3
ottoman 3
ou@@ 3
ous@@ 3
pan@@ 3
pap@@ 3
part@@ 3
parties 3
pas@@ 3
past 3
path 3
patron 3
pe 3
peace 3
pel@@ 3
performances 3
pesos 3
petrol 3
phone 3
pictures 3
pieces 3
pin@@ 3
pisa 3
pit@@ 3
plane 3
planning 3
plans 3
platform 3
players 3
playing 3
plays 3
pm 3
points 3
polls 3
poor 3
populated 3
port@@ 3
posed 3
pou@@ 3
pra@@ 3
pradesh 3
pre-@@ 3
presented 3
pri@@ 3
price 3
princess 3
prison 3
prob@@ 3
probably 3
produced 3
producer 3
prof@@ 3
promoting 3
prot@@ 3
protection 3
provide 3
provides 3
psych@@ 3
pt@@ 3
puerto 3
pul@@ 3
que 3
raid 3
rank 3
rate 3
rated 3
raw 3
reason 3
reference 3
reflecting 3
refused 3
regiments 3
regular 3
reichstag 3
relations 3
remains 3
remove 3
renaissance 3
replaced 3
res 3
research 3
response 3
resulted 3
rick 3
ro 3
rotation 3
round 3
rounds 3
row 3
rural 3
rush 3
russian 3
s@@ 3
saddle 3
salamanders 3
salon 3
saturn 3
says 3
scene 3
seal 3
secret 3
security 3
sed 3
seeing 3
selling 3
send 3
separate 3
serve 3
seventh 3
shadow 3
shape 3
shared 3
sia 3
silk 3
simon 3
sir 3
sites 3
sky 3
smith 3
society 3
some@@ 3
sonata 3
sources 3
southeast 3
soy 3
sp@@ 3
spoken 3
sport 3
spread 3
ss 3
stadium 3
stand 3
stanley 3
stated 3
stations 3
stayed 3
steel 3
stems 3
stephen 3
stolen 3
stone 3
stop 3
strange 3
stripe 3
sts 3
students 3
styles 3
subdivision 3
subtropical 3
successful 3
suffered 3
sun 3
sunday 3
sure 3
surgery 3
suspended 3
symbols 3
ta 3
tag 3
talk 3
tango 3
tank 3
tar 3
ters 3
test 3
th@@ 3
thal 3
thomas 3
throughout 3
tim 3
tional 3
tions 3
tod 3
tor 3
track 3
traders 3
traditionally 3
traffic 3
transfer 3
transmission 3
trials 3
troops 3
trophy 3
tube 3
ture 3
tures 3
u. 3
universe 3
unlike 3
unusual 3
user 3
vaihingen 3
ved 3
vehicles 3
velvet 3
ves 3
videos 3
view 3
views 3
villages 3
ville 3
ving 3
vocals 3
voice 3
volcano 3
vote 3
w 3
walker 3
wall 3
want 3
warner 3
washington 3
wayne 3
we 3
weakened 3
weather 3
weeks 3
whedon 3
widespread 3
wilma 3
wind 3
winning 3
winter 3
worship 3
worth 3
writing 3
writings 3
wwii 3
ya 3
zig 3
&apos;azur 2
-1990s 2
-american 2
-du@@ 2
-like 2
... 2
00s 2
08 2
09 2
1,000 2
1,3@@ 2
105 2
121 2
122 2
125 2
13th 2
150 2
155939050@@ 2
1649 2
18,@@ 2
1816 2
1824 2
1838 2
183@@ 2
1847 2
184@@ 2
1855 2
1856 2
1858 2
1868 2
1870 2
1871 2
1876 2
1889 2
1897 2
189@@ 2
1910 2
1911 2
1914 2
1917 2
1918 2
191@@ 2
1920 2
1930s 2
1936 2
1939 2
1942 2
1947 2
1950s 2
1953 2
1954 2
1955 2
1957 2
1958 2
195@@ 2
1962 2
1965 2
1966 2
1968 2
196@@ 2
1972 2
1982 2
1988 2
1989 2
1990s 2
2.@@ 2
200@@ 2
217 2
30th 2
32 2
33@@ 2
35 2
41 2
50,000 2
57@@ 2
59 2
6,000 2
63 2
68 2
7.@@ 2
77 2
83 2
85 2
86 2
93 2
99 2
a. 2
ab 2
abbas 2
acc@@ 2
accep@@ 2
accept 2
access 2
accessible 2
accident 2
account 2
account@@ 2
aches 2
achievements 2
actions 2
activists 2
additional 2
additions 2
addre@@ 2
ade 2
ades 2
administr@@ 2
administration 2
adrastea 2
advanced 2
advantage 2
adventure 2
adventures 2
ae 2
aerial 2
aes 2
affairs 2
aged 2
aging 2
agnes 2
agreed 2
agreements 2
agriculture 2
ah 2
ain 2
aine 2
ak 2
alberto 2
ale 2
ales 2
alex@@ 2
algeria 2
aling 2
alities 2
alized 2
all-@@ 2
alma@@ 2
alone 2
already 2
altar 2
alternat@@ 2
amaz@@ 2
ambient 2
ambo@@ 2
amm@@ 2
amph@@ 2
amusement 2
analyzing 2
anc@@ 2
ances 2
ancestors 2
ancing 2
ancy 2
anded 2
anderson 2
andhra 2
andrew 2
ang 2
angeles 2
anger 2
anglic@@ 2
ania 2
anne 2
ano 2
answering 2
ante 2
anthro@@ 2
antiaircraft 2
anticip@@ 2
antism 2
antonio 2
anyone 2
ap 2
aparthe@@ 2
app@@ 2
appe@@ 2
application 2
applied 2
appointed 2
appropriate 2
approved 2
ara 2
arat 2
archbishop 2
archipelago 2
arctic 2
are@@ 2
arg@@ 2
arizona 2
armenians 2
armored 2
arnold 2
arri@@ 2
arrives 2
artemis 2
arter@@ 2
arterioles 2
arthur 2
arti@@ 2
ase 2
aser 2
ashland 2
aside 2
ass 2
assembly 2
assistant 2
associ@@ 2
assum@@ 2
astic 2
astro@@ 2
astronomy 2
ata 2
ath 2
ation@@ 2
atively 2
atl 2
atoms 2
attacks 2
attempted 2
attempts 2
attention 2
attrac@@ 2
attracted 2
attractions 2
attributed 2
audiences 2
aur 2
automatically 2
autonomous 2
aven@@ 2
aviation 2
ax@@ 2
ay 2
ays 2
baba 2
baby 2
bach@@ 2
back-up 2
background 2
backup 2
bacteria 2
baghdad 2
bagnotar 2
baham@@ 2
ball@@ 2
ballan 2
ban@@ 2
bangui 2
bapti@@ 2
barber 2
bard 2
barker 2
barr 2
barracks 2
base 2
basil@@ 2
basin 2
bastille 2
batt@@ 2
bayern 2
bayreuth 2
bc@@ 2
beat@@ 2
bec@@ 2
becoming 2
bed 2
bedroom 2
beer 2
bel 2
bel@@ 2
belarus 2
belgian 2
belgium 2
belief 2
beliefs 2
belmont 2
belong 2
belt 2
ben 2
bene@@ 2
benef@@ 2
bengal 2
benghazi 2
bergman 2
bern 2
bernard 2
bes 2
bes@@ 2
best-seller 2
beverage 2
beverly 2
bigger 2
biggest 2
bignasco 2
bil@@ 2
biology 2
bird 2
bis@@ 2
bishop 2
black@@ 2
blade 2
bles 2
boats 2
bol@@ 2
booker 2
bor@@ 2
borough 2
borst 2
bour@@ 2
bourne 2
bow@@ 2
brand 2
break@@ 2
bri@@ 2
brick 2
bride 2
bright 2
brilliant 2
broad@@ 2
broadcast 2
broadway 2
brown 2
brows@@ 2
bruins 2
brun@@ 2
brunswick 2
bs 2
buddhist 2
budget 2
bulgarian 2
bulldog 2
buncombe 2
bund 2
bundesländer 2
burg 2
burke 2
burn 2
bus@@ 2
buses 2
byp@@ 2
cab@@ 2
caine 2
cairo 2
calder 2
calendar 2
call@@ 2
cam@@ 2
cambridge 2
cameo 2
campaigner 2
candidates 2
canon 2
canterbury 2
canton 2
capitol@@ 2
captain 2
captured 2
cards 2
care@@ 2
career 2
carp@@ 2
carried 2
carry 2
carrying 2
cash 2
cat 2
cath@@ 2
cau@@ 2
cauc@@ 2
caught 2
causse 2
caves 2
cayo 2
caz@@ 2
ce 2
celebr@@ 2
celebration 2
celestus 2
celtic 2
ceres 2
certificate 2
chad 2
chairman 2
champion 2
chants 2
chap@@ 2
chapter 2
chapters 2
characteristics 2
charts 2
chase 2
ched 2
chemistry 2
cher@@ 2
chi 2
chi@@ 2
chicago 2
chief@@ 2
chil@@ 2
childbirth 2
chile 2
ching 2
choo@@ 2
christ 2
christianity 2
chronic@@ 2
ciphers 2
circul@@ 2
civil@@ 2
ck 2
claims 2
classes 2
classi@@ 2
clayton 2
cle@@ 2
climate 2
clothing 2
clou@@ 2
cn 2
coalition 2
coaster 2
cock@@ 2
cocoa 2
code@@ 2
coffee 2
cogn@@ 2
collabor@@ 2
collar 2
collec@@ 2
collection 2
comb@@ 2
combe 2
combined 2
combines 2
comm@@ 2
comman@@ 2
command 2
commonwealth 2
communion 2
compar@@ 2
compet@@ 2
competition 2
complement 2
complex 2
compos@@ 2
compounds 2
computers 2
concentration 2
concert 2
conch 2
conductors 2
conf@@ 2
confirmed 2
connec@@ 2
connections 2
conquered 2
console 2
conspiracy 2
constant@@ 2
constitution 2
constructed 2
consulting 2
cont@@ 2
contaminated 2
contest 2
contribution 2
contro@@ 2
conurbation 2
conv@@ 2
convention 2
copper 2
corporations 2
cost@@ 2
cough 2
coupled 2
courts 2
courtyard 2
crash@@ 2
crater 2
creation 2
creatures 2
credibility 2
crisis 2
criticized 2
crops 2
cross@@ 2
crossing 2
crown 2
cs 2
cul@@ 2
cultural 2
currently 2
curse 2
cy@@ 2
cyber-@@ 2
cybermen 2
cycle 2
daily 2
dak@@ 2
dakota 2
dalai 2
dallas 2
dam@@ 2
dangerous 2
daniel 2
dar 2
date 2
dav@@ 2
david 2
dead 2
deaf 2
deal 2
deals 2
deaths 2
deb@@ 2
debate 2
debby 2
debussy 2
decay 2
decided 2
decision 2
decline 2
deer 2
def@@ 2
defeated 2
defence 2
defending 2
defic@@ 2
defin@@ 2
delegation 2
deli@@ 2
den 2
den@@ 2
denis 2
denmark 2
departments 2
depic@@ 2
ders 2
des@@ 2
described 2
deser@@ 2
destruc@@ 2
det@@ 2
dev@@ 2
develop 2
developers 2
dia@@ 2
diameter 2
diarrhea 2
dic 2
dic@@ 2
die 2
diego 2
diemen 2
diet 2
diff@@ 2
differ@@ 2
dino@@ 2
directing 2
disappeared 2
discharge 2
discover@@ 2
discrete-time 2
diseases 2
disk 2
disorganized 2
display 2
displays 2
disputes 2
distribu@@ 2
distribution 2
divid@@ 2
dividing 2
doctor 2
doctors 2
doctrine 2
document 2
dominant 2
don@@ 2
double 2
dow@@ 2
download 2
dr. 2
dra 2
dragons 2
dram@@ 2
drama 2
dramatic 2
dre@@ 2
dresden 2
driver 2
drogheda 2
drop 2
dropped 2
drugs 2
drum 2
dubai 2
duchess 2
dust 2
duty 2
dv@@ 2
dwar@@ 2
dying 2
dynasty 2
e. 2
eagle 2
ean@@ 2
eans 2
earthquake 2
earthsea 2
eas@@ 2
easement 2
eating 2
echidna 2
eck 2
econom@@ 2
economy 2
ect 2
ection 2
ections 2
edges 2
editors 2
edo 2
eds 2
educ@@ 2
edward 2
effective 2
effort 2
eful 2
ek 2
elected 2
element 2
elevated 2
elevation 2
elian 2
elism 2
elite 2
elliot 2
ely 2
eman@@ 2
ement 2
emerged 2
emergency 2
emic 2
emily 2
emp@@ 2
ences 2
ency 2
encyclopedia 2
encyclopædia 2
endor@@ 2
enem@@ 2
enforcement 2
engineering 2
enjo@@ 2
enn@@ 2
enny 2
ens@@ 2
ental 2
entire 2
entra@@ 2
entrance 2
epic 2
episcopal 2
episode 2
episodes 2
epsilon 2
equilibrium 2
er-@@ 2
eral@@ 2
erc@@ 2
erectus 2
ering 2
errors 2
eruption 2
escap@@ 2
ested 2
ests 2
etc 2
eter@@ 2
eth 2
ety 2
eu@@ 2
eunomia 2
eva 2
eventually 2
ever 2
evil 2
evolved 2
ew@@ 2
exam@@ 2
examination 2
execution 2
existed 2
exists 2
expanded 2
expansion 2
expelled 2
experi@@ 2
experiments 2
expl@@ 2
explain 2
explosi@@ 2
extended 2
extinct 2
extreme 2
exual 2
eye 2
eyewall 2
ez 2
ezra 2
fa 2
fa@@ 2
fac@@ 2
fact 2
factors 2
faith 2
faith@@ 2
fal@@ 2
fall 2
families 2
farm@@ 2
fat@@ 2
favorable 2
fc 2
feast 2
features 2
feel 2
fel@@ 2
feld 2
fellow 2
female 2
fencing 2
fet@@ 2
fever 2
fictional 2
fierce 2
fifa 2
fifteen 2
figaro 2
fighter 2
fighting 2
fights 2
figure 2
files 2
finally 2
fior@@ 2
flags 2
flat 2
flav@@ 2
fleet 2
flo@@ 2
flooded 2
flora 2
flowers 2
flows 2
fly 2
fo@@ 2
foam@@ 2
focusing 2
follow@@ 2
font 2
fool 2
foot@@ 2
forced 2
forecasts 2
foreplay 2
forests 2
format 2
fortune 2
fossil 2
fought 2
founding 2
four@@ 2
fox 2
fran@@ 2
francis 2
frequency 2
fresh 2
fresh@@ 2
fri@@ 2
friend 2
frontier 2
fruit 2
fs 2
ft 2
fun@@ 2
functions 2
fungi 2
fur@@ 2
furby 2
further 2
gallery 2
gam@@ 2
gand@@ 2
gandhi 2
gang 2
gar 2
garage 2
gard 2
garonne 2
gases 2
gate 2
gene 2
generally 2
genes 2
genetic 2
genotype 2
ges 2
gets 2
gil@@ 2
gir@@ 2
girls 2
gloves 2
gn@@ 2
goals 2
goddess 2
golden@@ 2
golf 2
google 2
gor@@ 2
gpa 2
grail 2
grand 2
grand@@ 2
grass@@ 2
gre@@ 2
greens 2
greta 2
grey 2
gri@@ 2
ground@@ 2
grove 2
gs 2
guangxi 2
guerrero 2
gulf 2
gust 2
gusta@@ 2
gw@@ 2
habit@@ 2
habitat 2
had@@ 2
hain@@ 2
hairs 2
hait@@ 2
hak@@ 2
hal@@ 2
hall@@ 2
ham@@ 2
hamp@@ 2
handles 2
happy 2
harbor 2
hartford 2
has@@ 2
hate 2
hatt@@ 2
heat 2
heavy 2
hebrew 2
heinrich 2
heisenberg 2
hektor 2
help@@ 2
hem@@ 2
herac@@ 2
herbs 2
hermann 2
hermione 2
hi@@ 2
hig@@ 2
hill@@ 2
historians 2
hit@@ 2
hitting 2
hn 2
hogan 2
holds 2
hom@@ 2
homes 2
homo@@ 2
honored 2
honours 2
hop 2
hope 2
horses 2
hosp@@ 2
hot@@ 2
house@@ 2
housemates 2
houston 2
howard 2
hu@@ 2
hul@@ 2
hundreds 2
hunting 2
huntsman 2
hur@@ 2
husband 2
huá@@ 2
hybrid 2
hynobiidae 2
ially 2
ian@@ 2
iano 2
ib@@ 2
ibanez 2
iber@@ 2
ica 2
icelandic 2
ices 2
ick 2
icrc 2
ide 2
ide@@ 2
iding 2
if@@ 2
ign@@ 2
iled 2
ility 2
illinois 2
illiterate 2
illnesses 2
illusion 2
ils 2
im 2
image 2
impac@@ 2
impossible 2
improved 2
inc 2
inc@@ 2
income 2
incre@@ 2
increas@@ 2
independently 2
industrial 2
industry 2
inf@@ 2
info 2
ingdon 2
inger 2
inhabitants 2
inheritance 2
inj@@ 2
ink 2
ino 2
instant 2
institutions 2
instruments 2
intelligence 2
intensified 2
interest 2
intern@@ 2
interrupt 2
inv@@ 2
invented 2
ion@@ 2
iowa 2
iraq@@ 2
iron@@ 2
isa@@ 2
isbn 2
ise 2
ised 2
ished 2
ishers 2
ishes 2
isolde 2
iss@@ 2
italian@@ 2
ithic 2
iting 2
ition 2
itive 2
itted 2
itude 2
ive 2
ives 2
ix 2
ization 2
izations 2
jackson 2
jam@@ 2
janus 2
jazz 2
jean 2
jean-@@ 2
jersey 2
jewelry 2
jewish 2
jimmy 2
joh@@ 2
johnson 2
joint 2
jon@@ 2
jones 2
jordison 2
josef 2
joseph 2
josé 2
juan 2
jubilee 2
jör@@ 2
ka 2
ka@@ 2
kai 2
kal@@ 2
kami 2
kangaroos 2
kansas 2
karnataka 2
keep@@ 2
ken@@ 2
kerberos 2
kes 2
kevin 2
key@@ 2
keys 2
kg 2
kid@@ 2
kill 2
kilometers 2
kin@@ 2
kingdoms 2
kir@@ 2
km2 2
koxinga 2
kreis 2
kyo@@ 2
labour 2
lad 2
lad@@ 2
lahore 2
lanarkshire 2
lass@@ 2
latency 2
lau@@ 2
law@@ 2
lawrence 2
ld@@ 2
leaf 2
learning 2
leave 2
leaves 2
leaving 2
leech 2
leg@@ 2
legen@@ 2
leicester 2
lemmon 2
lenses 2
leo@@ 2
leonardo 2
ler@@ 2
letter 2
ley 2
libertarian 2
lic@@ 2
lieuten@@ 2
light@@ 2
lilo 2
limit 2
limited 2
link 2
linked 2
lion 2
lions 2
lip 2
list@@ 2
listed 2
literature 2
locomotives 2
lonely 2
lord 2
louis@@ 2
low@@ 2
lowest 2
loy@@ 2
lus@@ 2
luther 2
luther@@ 2
ly-@@ 2
lyric 2
lyrics 2
lywood 2
lüdinghausen 2
m. 2
mad@@ 2
madri@@ 2
maestro 2
magnetic 2
mah@@ 2
mai 2
maiden 2
mainland 2
maintain 2
maintaining 2
mak@@ 2
maker 2
mali 2
mam@@ 2
manchu 2
manufactures 2
mar 2
maria 2
marine 2
market 2
mars 2
marshall 2
marx@@ 2
maryland 2
masses 2
mate 2
max 2
max@@ 2
mayor 2
mbar 2
mcmahon 2
mean@@ 2
measu@@ 2
measuring 2
medal 2
medic@@ 2
medium 2
meet 2
meeting 2
meets 2
megal@@ 2
melanoleuc@@ 2
melodifestivalen 2
membership 2
mental 2
mentioned 2
mercenary 2
merging 2
meridiem 2
meso@@ 2
mess@@ 2
messing 2
metabolic 2
metalsmithing 2
metropolitan 2
mexican 2
microsoft 2
mid 2
mid@@ 2
migrants 2
migrated 2
mil@@ 2
mild 2
mile 2
milk 2
mill@@ 2
minar@@ 2
mines 2
minimal 2
minimum 2
mining 2
minutes 2
mis@@ 2
miss 2
missiles 2
mit 2
mixed 2
mod@@ 2
mode 2
model 2
modern@@ 2
modified 2
module 2
molecules 2
moment 2
montreal 2
moritz 2
mosques 2
moth 2
mou@@ 2
mountainous 2
mour@@ 2
moves 2
mozart 2
mtv 2
mud 2
mud@@ 2
mul@@ 2
mulde 2
multipl@@ 2
munroe 2
mur@@ 2
murray 2
mutant 2
mutiny 2
my 2
my@@ 2
nadu 2
nan@@ 2
nano@@ 2
nap@@ 2
navy 2
nazi 2
near@@ 2
nearest 2
nebul@@ 2
necessary 2
needs 2
negative 2
nel 2
ners 2
nes 2
net 2
neu@@ 2
neuro@@ 2
neurolog@@ 2
news 2
nhl 2
nicholas 2
nin@@ 2
nineteenth 2
nintendo 2
no. 2
nominations 2
non-co@@ 2
nor 2
norfolk 2
north-@@ 2
north@@ 2
northeastern 2
northwestern 2
norwich 2
notice 2
numbers 2
nutcracker 2
ny 2
nypd 2
o-@@ 2
ober@@ 2
object 2
objects 2
observer 2
obsidian 2
obstacles 2
oc 2
occasionally 2
occultations 2
occupied 2
occurs 2
ocked 2
ocking 2
od 2
ods 2
offer 2
offered 2
officer 2
oh 2
oheterotroph 2
ohio 2
oil 2
oldest 2
oli 2
olymp@@ 2
oms 2
onen 2
ones 2
ong 2
onia 2
online 2
onn@@ 2
ontario 2
ope 2
opened 2
opeth 2
opinion 2
opposing 2
optical 2
orange 2
ordered 2
ore 2
organ 2
orial 2
originated 2
ornam@@ 2
ornithologist 2
orson 2
ory 2
os@@ 2
osp@@ 2
ot 2
otariidae 2
oth 2
ott@@ 2
ound 2
ous 2
owned 2
owners 2
ows 2
p-@@ 2
packagekit 2
packages 2
paid 2
pain 2
palace 2
palestinian 2
parallel 2
parish 2
participate 2
participated 2
particle 2
partnership 2
pas-de-calais 2
passing 2
patches 2
patient 2
patients 2
pav@@ 2
pawn 2
pay 2
pay-per-view 2
pea@@ 2
peaked 2
pec@@ 2
pencils 2
perc@@ 2
perceived 2
performance 2
performing 2
peri@@ 2
personality 2
pest@@ 2
pet 2
peter 2
phar@@ 2
phases 2
phenomena 2
philadelphia 2
photograph@@ 2
photos 2
phrase 2
phys@@ 2
physical 2
pianist 2
piano 2
picas@@ 2
pie 2
piece 2
pillar 2
piper 2
pir@@ 2
pittsburgh 2
plain 2
plains 2
plan 2
planned 2
plat@@ 2
plate 2
plates 2
platformer 2
platforms 2
playwright 2
ple 2
poem 2
poles 2
polish 2
polit@@ 2
poll 2
pompeii 2
pools 2
poorer 2
pop 2
pope 2
porn 2
pornography 2
portrayed 2
post 2
pot@@ 2
pottery 2
pp@@ 2
precursor 2
premiere 2
premiered 2
pres@@ 2
presence 2
presid@@ 2
press@@ 2
pression 2
pretoria 2
priest 2
primarily 2
primitive 2
princ@@ 2
principle 2
print 2
printers 2
priority 2
prison@@ 2
private 2
pro-@@ 2
probe 2
probl@@ 2
proc@@ 2
processing 2
produces 2
profit 2
promotional 2
prop@@ 2
property 2
prote@@ 2
protest@@ 2
protestant 2
protocols 2
prov@@ 2
proved 2
provence-alpes-côte 2
provided 2
provisional 2
provisions 2
prus@@ 2
pré 2
psyche 2
public@@ 2
publisher 2
puck 2
pulling 2
pulp@@ 2
pun@@ 2
punishment 2
punj@@ 2
punt 2
purchase 2
purpose 2
purposes 2
q 2
qing 2
qualify 2
quarterback 2
quartet 2
quebec 2
quickly 2
quirinus 2
r@@ 2
ra 2
racing 2
rain 2
raja 2
rams 2
ranged 2
ranges 2
rapid 2
rather 2
rating 2
ratings 2
rc4 2
reality 2
realm 2
receives 2
recent 2
recognized 2
recording 2
recruited 2
reddish 2
reduce 2
reduced 2
ree 2
reed 2
referee 2
referenced 2
references 2
reflection 2
reformation 2
regained 2
regarded 2
regiment 2
regions 2
relationship 2
relatives 2
releases 2
relocated 2
remaining 2
removed 2
renamed 2
renault 2
repair 2
replace 2
represents 2
reproduce 2
required 2
rescue 2
reservoir 2
residents 2
resources 2
rest 2
retired 2
retirement 2
returns 2
reverend 2
reverse 2
reviews 2
revolution 2
revolver 2
rey 2
rfa 2
rhine 2
rian 2
ric 2
richelieu 2
rico 2
rier 2
riluzole 2
ripley 2
ris 2
risc 2
rising 2
risk 2
rival 2
rocky 2
roe 2
role-playing 2
roller 2
rollo 2
romans 2
rome 2
roofing 2
roots 2
ror 2
roseanne 2
roses 2
roth 2
rotten 2
route 2
roy 2
rsa 2
ruler 2
rumble 2
running 2
s.@@ 2
sa 2
sa@@ 2
safe 2
sailed 2
salaam 2
sales 2
salt 2
saltire 2
sanctuary 2
sandstone 2
sang 2
saxon 2
scales 2
scent 2
scholarship 2
scientist 2
scoop 2
score 2
scored 2
scotland 2
scottish 2
search 2
seas 2
seaside 2
secondary 2
sectors 2
sects 2
secured 2
seeds 2
selassie 2
seleucidis 2
sentences 2
sequel 2
ser@@ 2
servation 2
server 2
sessions 2
setting 2
settlers 2
seventeenth 2
sex 2
sfield 2
shallow 2
shapes 2
share 2
shares 2
shield 2
shift 2
shinto 2
shire 2
shirt 2
shooting 2
shop 2
shortly 2
shot 2
shoulder 2
shrub 2
shutting 2
siege 2
siena 2
sign 2
signals 2
signature 2
signs 2
simpler 2
simplification 2
simul@@ 2
singapore 2
situated 2
situation 2
sk@@ 2
skin 2
slave 2
sleeveless 2
slipknot 2
slowed 2
smell 2
snakes 2
soap 2
soest 2
soldiers 2
solntsevskaya 2
solo 2
soma 2
sounds 2
southwestern 2
sox 2
spac@@ 2
spandau 2
spd 2
speaker 2
spears 2
spectrum 2
speech 2
spite 2
sponsors 2
sportive 2
spots 2
sq 2
squares 2
sses 2
ssl 2
st. 2
stages 2
starring 2
statesman 2
ster 2
steve 2
stic 2
stick 2
ston 2
strait 2
strategic 2
stream 2
streets 2
strength 2
strengthening 2
strikes 2
string 2
stu@@ 2
student 2
studio 2
stuttgart 2
subdivisions 2
subfamily 2
subjects 2
substances 2
sugar 2
suggest 2
suggests 2
sum 2
sunderland 2
sunshine 2
superimposed 2
supported 2
supports 2
supposed 2
supreme 2
surgical 2
surrounded 2
survive 2
sus 2
sweet 2
swimming 2
switching 2
sydney 2
symptoms 2
syn@@ 2
syrian 2
tacitus 2
tain 2
takama-ga-hara 2
tal@@ 2
tale 2
talked 2
tamil 2
tas 2
taught 2
taxation 2
taxonomy 2
tazz 2
te 2
teach 2
technique 2
techniques 2
technology 2
temperature 2
temporary 2
tennis 2
terminal 2
tern 2
terns 2
tes 2
tese 2
testing 2
textiles 2
the@@ 2
theater 2
theatre 2
theme 2
ther 2
thermometer 2
thers 2
thin 2
things 2
think 2
third-largest 2
thousand 2
thousands 2
throwing 2
thunderstorm 2
tie 2
ties 2
tiko 2
tile 2
timber 2
timor 2
titan 2
tls 2
to@@ 2
told 2
topic 2
topics 2
tos 2
tourists 2
towards 2
toy 2
tracks 2
trails 2
trains 2
transactions 2
travel@@ 2
travels 2
treated 2
tree 2
trial 2
tributary 2
tried 2
tries 2
trigonometry 2
trio 2
tristan 2
truth 2
tured 2
turkey 2
turks 2
turns 2
tuscany 2
u@@ 2
ual 2
ue 2
ula 2
ules 2
ult 2
ump 2
unclear 2
undertaker 2
uniforms 2
unincorporated 2
unity 2
universities 2
upscale 2
uranus 2
ured 2
ures 2
uri 2
usa 2
useful 2
usively 2
ussion 2
ust 2
usted 2
utonic 2
v@@ 2
valleys 2
valuable 2
vancouver 2
varieties 2
variety 2
vegetation 2
vention 2
venue 2
ver 2
vh1 2
vi 2
vi@@ 2
vice 2
victims 2
vienna 2
vies 2
violent 2
virginia 2
virtual 2
visit 2
visited 2
visiting 2
visitors 2
visits 2
visual 2
volcanic 2
volume 2
voted 2
vyvyan 2
vättern 2
wagner 2
waley 2
walthamstow 2
walton 2
ward 2
warm 2
watch 2
watching 2
waterson 2
wave 2
waves 2
wealth 2
weapons 2
weight 2
wells 2
weren 2
werner 2
whom 2
wi-fi 2
widely 2
williams 2
windows 2
winner 2
winners 2
wire 2
wolf 2
wor@@ 2
workers 2
worried 2
write 2
writer 2
wwi 2
württemberg 2
x@@ 2
xiii 2
y@@ 2
yancey 2
yellow 2
yers 2
yet 2
yin 2
ying 2
younger 2
ys 2
za 2
zer 2
zhuang 2
zone 2
é 2
’ 2
-level 1
-related 1
-speaking 1
-type 1
-up 1
03 1
100 1
100@@ 1
1395 1
178 1
1817 1
1819 1
1828 1
1836 1
1849 1
185@@ 1
1862 1
188@@ 1
1901 1
1902 1
1904 1
1907 1
1909 1
190@@ 1
1920s 1
1921 1
1932 1
1935 1
193@@ 1
1949 1
1951 1
1963 1
1970s 1
1971 1
1976 1
1984 1
20th 1
21st 1
3,000 1
40@@ 1
44 1
5,000 1
50@@ 1
58 1
6.@@ 1
750@@ 1
800 1
91 1
91@@ 1
92 1
= 1
aba 1
abad 1
abbe@@ 1
abeth 1
abil@@ 1
ably 1
abol@@ 1
abolition 1
abrasions 1
academics 1
accessed 1
acclaimed 1
accompl@@ 1
ace 1
ach 1
ached 1
achieved 1
achievement 1
ack 1
ack@@ 1
acked 1
acqu@@ 1
act@@ 1
acting 1
activ@@ 1
actress 1
actual 1
acy 1
adam 1
adap@@ 1
adapted 1
add@@ 1
aded 1
adjacent 1
admitted 1
adop@@ 1
adul@@ 1
advisory 1
advoc@@ 1
advocate 1
afternoon 1
afterwards 1
aga 1
agency 1
aggressive 1
agrees 1
agricul@@ 1
aign@@ 1
ailed 1
ained 1
ains 1
akes 1
ala 1
albe@@ 1
alber@@ 1
albion 1
albu@@ 1
aled 1
algorith@@ 1
ali 1
allas 1
alle@@ 1
alongside 1
alpes-@@ 1
alt@@ 1
altered 1
alty 1
amateur 1
ame 1
amed 1
americ@@ 1
amp@@ 1
ams 1
ana 1
analyzed 1
anced 1
ancest@@ 1
anding 1
andover 1
angel 1
anglo-@@ 1
angular 1
anna 1
annes 1
anniversary 1
anno 1
anonym@@ 1
ans@@ 1
aph@@ 1
apostles 1
appear@@ 1
appearing 1
apped 1
appro@@ 1
apri@@ 1
aqu@@ 1
arab@@ 1
arbor@@ 1
arch 1
archit@@ 1
architec@@ 1
architect 1
archive 1
ards 1
ari@@ 1
armies 1
arr@@ 1
arrive 1
ars 1
articles 1
asc@@ 1
ased 1
assass@@ 1
assem@@ 1
asserting 1
assi@@ 1
assigned 1
assortment 1
ast@@ 1
asts 1
asymmet@@ 1
ata@@ 1
ately 1
ater 1
atic 1
ational 1
ative 1
atl@@ 1
atlanta 1
ato 1
atory 1
atta@@ 1
attain 1
attribu@@ 1
atures 1
auto@@ 1
autom@@ 1
avi@@ 1
avo@@ 1
awi@@ 1
awn 1
ax 1
ayed 1
ayer 1
aying 1
az 1
azerba@@ 1
azerbaijan 1
bach 1
backing 1
bag@@ 1
ban 1
bands 1
banks 1
bann@@ 1
banner 1
barry 1
basic 1
basketball 1
bat 1
battal@@ 1
batteries 1
beau@@ 1
beauty 1
beg@@ 1
begin@@ 1
behind 1
believes 1
ber 1
berg 1
bers 1
bert 1
beth 1
beverages 1
bin@@ 1
bit@@ 1
black-@@ 1
ble@@ 1
board 1
bogs 1
bohr 1
bom@@ 1
bon 1
bor 1
bou@@ 1
boulogne 1
bounded 1
bow 1
braw@@ 1
brazil 1
brea@@ 1
bread 1
brigade 1
bring 1
bringing 1
brit@@ 1
britann@@ 1
brow@@ 1
brut@@ 1
brü@@ 1
bud@@ 1
buffy 1
buffyverse 1
bulgar@@ 1
bundes@@ 1
bure@@ 1
burgh 1
bury 1
bus 1
busin@@ 1
c-types 1
cab 1
cable 1
cad 1
calcul@@ 1
calculated 1
caldwell 1
cale 1
califor@@ 1
camp 1
campaign@@ 1
canadi@@ 1
canc@@ 1
cand@@ 1
candid@@ 1
candy 1
cant@@ 1
capacity 1
carbon@@ 1
carbonaceous 1
cardin@@ 1
carol@@ 1
cases 1
casting 1
catal@@ 1
catalan 1
cathedr@@ 1
caus@@ 1
causing 1
cbe 1
cc@@ 1
ced 1
celebrated 1
celest@@ 1
celsius 1
cen@@ 1
cep@@ 1
cerv@@ 1
ces 1
chair 1
cham@@ 1
chamber 1
champ@@ 1
champions 1
chancell@@ 1
chang@@ 1
channel 1
characteristic 1
characterized 1
charity 1
cheaha 1
cher 1
ches@@ 1
cheshire 1
chianti 1
chic@@ 1
chin@@ 1
chocol@@ 1
chor@@ 1
choral 1
chr@@ 1
chronicles 1
churros 1
ciph@@ 1
cir@@ 1
cisc 1
civ@@ 1
civilization 1
ck@@ 1
class@@ 1
claws 1
cle 1
clear@@ 1
cli@@ 1
climbing 1
clin@@ 1
clinic 1
clock 1
closed 1
closely 1
coal@@ 1
coco@@ 1
coles 1
collapse 1
collectiv@@ 1
collectivity 1
columb@@ 1
com 1
coming 1
commended 1
comment@@ 1
commerc@@ 1
commercial@@ 1
commission@@ 1
commit@@ 1
commitment 1
commonly 1
communic@@ 1
communication 1
compass@@ 1
compat@@ 1
compl@@ 1
complet@@ 1
composed 1
compris@@ 1
comprises 1
concentrated 1
concep@@ 1
concerns 1
concl@@ 1
concrete 1
conducted 1
conducting 1
cone 1
conflic@@ 1
congre@@ 1
connection 1
conqu@@ 1
consec@@ 1
consequently 1
conservative 1
consi@@ 1
consider@@ 1
consisted 1
consol@@ 1
const@@ 1
constitu@@ 1
constra@@ 1
construc@@ 1
consul@@ 1
consum@@ 1
contained 1
continental 1
continu@@ 1
continue 1
contr@@ 1
contrast 1
contributed 1
contributions 1
controller 1
convened 1
conver@@ 1
convic@@ 1
coo@@ 1
cope 1
copyleft 1
copyright 1
corp@@ 1
corpor@@ 1
corpses 1
correctly 1
coun@@ 1
count@@ 1
counter 1
countess 1
cour@@ 1
crack@@ 1
craft 1
cran@@ 1
creative 1
cred@@ 1
crete 1
cri@@ 1
crime 1
criminal 1
cris@@ 1
crit@@ 1
critic@@ 1
critical 1
cro@@ 1
cruiserweight 1
crus@@ 1
cry@@ 1
ctic 1
cult 1
cultiv@@ 1
curr@@ 1
cw 1
cyber@@ 1
cycl@@ 1
cyclonic 1
d. 1
darker 1
dat@@ 1
dd@@ 1
de-@@ 1
dea@@ 1
degre@@ 1
degree 1
del 1
deleg@@ 1
dell 1
demand 1
democ@@ 1
dera 1
dered 1
derick 1
derives 1
descri@@ 1
description 1
desert 1
designate 1
dest@@ 1
deta@@ 1
determined 1
devastated 1
developing 1
devices 1
dia 1
diem 1
differ 1
differenti@@ 1
differentiated 1
difficulty 1
dig@@ 1
dim@@ 1
dings 1
diony@@ 1
direction 1
directly 1
disc 1
disc@@ 1
disci@@ 1
discoveries 1
discre@@ 1
dish 1
dison 1
disper@@ 1
dissipated 1
dist@@ 1
distinc@@ 1
distinction 1
distinguished 1
distributed 1
dition@@ 1
dle 1
doc@@ 1
docum@@ 1
dollars 1
dom@@ 1
domin@@ 1
dominance 1
dominated 1
draft 1
drag@@ 1
draw@@ 1
dru@@ 1
dry 1
duch@@ 1
dutch 1
dvd 1
e-up 1
eal 1
ear 1
earlier 1
ears 1
easy 1
ebr@@ 1
ech@@ 1
eck@@ 1
ecting 1
ective 1
ects 1
ecture 1
edit 1
edit@@ 1
edited 1
edition 1
editor 1
edly 1
education 1
ee 1
eering 1
ef@@ 1
eff@@ 1
efforts 1
el-@@ 1
elec@@ 1
electro@@ 1
electromagnetic 1
eles 1
eless 1
elev@@ 1
eli@@ 1
elic 1
ell-@@ 1
elle 1
ello 1
ells 1
elong@@ 1
elongated 1
embar@@ 1
emot@@ 1
emotional 1
employ@@ 1
ems 1
en-@@ 1
enberg 1
ench@@ 1
encies 1
encing 1
encompass@@ 1
endant 1
ened 1
eness 1
enforc@@ 1
engaged 1
engraving 1
enha@@ 1
ening 1
enlarg@@ 1
enna 1
ense 1
enses 1
ensions 1
entary 1
ented 1
entering 1
environment 1
eo 1
eous 1
epi@@ 1
epiphytic 1
equals 1
erce 1
erec@@ 1
ered 1
erg@@ 1
ergy 1
erman 1
ern@@ 1
ero 1
erous 1
err@@ 1
erson 1
ert 1
ery 1
esque 1
essed 1
esses 1
essing 1
essor 1
establishment 1
estate 1
estimated 1
estion 1
et 1
et-@@ 1
eta 1
ete 1
eter 1
etry 1
euro@@ 1
euv@@ 1
event@@ 1
evin 1
ew 1
exceptions 1
excuse 1
exercise 1
exist@@ 1
existence 1
exp@@ 1
experience 1
experim@@ 1
explains 1
explo@@ 1
extend 1
extending 1
extensi@@ 1
extensive 1
extinc@@ 1
factor 1
facts 1
fail 1
fair 1
fall@@ 1
fam@@ 1
familiar 1
fan 1
fant@@ 1
fault 1
fea@@ 1
feat@@ 1
feather@@ 1
feathersword 1
feder@@ 1
fem@@ 1
fest@@ 1
feud@@ 1
feudal 1
fewer 1
ff@@ 1
fication 1
fictitious 1
fifth 1
fig@@ 1
file 1
fill 1
fill@@ 1
filmed 1
finals 1
financ@@ 1
firefly 1
fla@@ 1
flat@@ 1
flavour 1
flic@@ 1
flies 1
floo@@ 1
flor@@ 1
flow@@ 1
fluctu@@ 1
focus 1
fol@@ 1
fon@@ 1
font-size 1
fore@@ 1
forec@@ 1
forti@@ 1
forts 1
fortun@@ 1
fou@@ 1
found@@ 1
founder 1
four-@@ 1
frank@@ 1
fred 1
frequent 1
friday 1
friend@@ 1
friendship 1
fringe 1
fro@@ 1
fron@@ 1
front@@ 1
fru@@ 1
fuel@@ 1
fueled 1
ful@@ 1
fully 1
func@@ 1
functionally 1
funds 1
furt 1
fü@@ 1
für 1
g-@@ 1
g. 1
galil@@ 1
galilee 1
gall@@ 1
gaz@@ 1
ged 1
generalizations 1
generated 1
genus 1
geo 1
geograph@@ 1
geographical 1
geography 1
geological 1
geor@@ 1
ght 1
ghter 1
gi 1
gian 1
gie 1
gill 1
globe 1
glory 1
gne 1
goalt@@ 1
gogh 1
gol@@ 1
govern@@ 1
governor@@ 1
governorate 1
graphy 1
gray 1
grounds 1
group@@ 1
gue 1
guerr@@ 1
guin@@ 1
guitar@@ 1
gun@@ 1
half-@@ 1
half-hour 1
happ@@ 1
hara 1
hardcore 1
hart@@ 1
hawa@@ 1
headbangers 1
heav@@ 1
heavily 1
height 1
hell@@ 1
hen@@ 1
heng@@ 1
henson 1
highly 1
him@@ 1
hind 1
hired 1
historically 1
hits 1
hobbit 1
hole 1
holid@@ 1
hou@@ 1
how@@ 1
hr@@ 1
hs@@ 1
hub@@ 1
human@@ 1
humanitarian 1
hunt 1
hus@@ 1
hybri@@ 1
hymn 1
hynobi@@ 1
hypo@@ 1
ial@@ 1
ians 1
ible 1
icel@@ 1
ician 1
ida 1
idae 1
idation 1
idence 1
ident 1
ident@@ 1
identical 1
identif@@ 1
identified 1
ie 1
ief 1
iel 1
ien 1
iency 1
iev@@ 1
ieves 1
ification 1
ifications 1
ified 1
ili@@ 1
iling 1
illa 1
ille 1
ima@@ 1
imag@@ 1
immediate 1
immediately 1
impl@@ 1
implement@@ 1
implementations 1
importance 1
imposed 1
impro@@ 1
ina 1
inal 1
inary 1
inc. 1
inca 1
incarnation 1
ince 1
incorporated 1
incorporates 1
increase 1
ind@@ 1
indi@@ 1
indicated 1
indicates 1
indonesia 1
indu@@ 1
induc@@ 1
inducted 1
ine-@@ 1
iner 1
influences 1
infra@@ 1
inga 1
inhabit@@ 1
inine 1
init@@ 1
initially 1
inking 1
inscription 1
inspiration 1
install@@ 1
institu@@ 1
instrum@@ 1
inte@@ 1
integr@@ 1
intentionally 1
inter 1
internally 1
interview 1
introducing 1
introduction 1
inus 1
invest@@ 1
involvement 1
involves 1
iol@@ 1
ipswich 1
ir 1
ira 1
ired 1
irregularly 1
isation 1
isb@@ 1
isenberg 1
isher 1
ishment 1
isia 1
isms 1
iss 1
issued 1
ista 1
ister@@ 1
istic 1
istr@@ 1
ital 1
ital@@ 1
ite 1
ith@@ 1
ition@@ 1
itors 1
itself 1
itz 1
ively 1
ix@@ 1
ize 1
izes 1
jac@@ 1
jack@@ 1
jaz@@ 1
jets 1
jewel@@ 1
jim 1
jim@@ 1
john@@ 1
jour@@ 1
journ@@ 1
journal 1
jud@@ 1
judge 1
juice 1
jun@@ 1
junction 1
kam@@ 1
ke@@ 1
ken 1
ket 1
kic@@ 1
kids 1
kil@@ 1
kilometres 1
kly 1
know@@ 1
knowledge 1
ko 1
kol@@ 1
kow@@ 1
ky 1
labor@@ 1
lack 1
lady 1
laid 1
lain 1
lanar@@ 1
landfall 1
lat@@ 1
lation 1
lay 1
layers 1
ld 1
lear@@ 1
least 1
legendary 1
legis@@ 1
legislature 1
lenn@@ 1
leon@@ 1
lewinsky 1
liberation 1
libya 1
license 1
lier 1
lies 1
likely 1
lincoln 1
ling 1
liquid 1
listing 1
liver@@ 1
lo 1
load 1
locations 1
long-@@ 1
longevity 1
lop@@ 1
lor@@ 1
lossless 1
lou@@ 1
low-@@ 1
mac 1
mach@@ 1
magaz@@ 1
magn@@ 1
main@@ 1
maintained 1
maj@@ 1
mal 1
manag@@ 1
managed 1
management 1
mandate 1
mang@@ 1
manu@@ 1
manufacturer 1
marc@@ 1
maritim@@ 1
maritime 1
marked 1
markets 1
mass@@ 1
massive 1
masterpieces 1
materials 1
matt 1
maxim@@ 1
maximum 1
mccar@@ 1
meas@@ 1
medi@@ 1
meet@@ 1
melo@@ 1
ments 1
meo 1
mer 1
merc@@ 1
message 1
meteorological 1
metro@@ 1
micha@@ 1
mickey 1
mig@@ 1
milit@@ 1
millenn@@ 1
mine 1
ming 1
ming@@ 1
ministry 1
mix@@ 1
mm 1
mob@@ 1
models 1
modi@@ 1
modification 1
mol@@ 1
molec@@ 1
moons 1
morning 1
moscow 1
mosqu@@ 1
motor 1
moun@@ 1
mount 1
mouse 1
mouth 1
mov@@ 1
movements 1
muawiyah 1
murder 1
mus 1
muse@@ 1
musicians 1
musli@@ 1
mut@@ 1
myster@@ 1
mé@@ 1
naming 1
nard 1
nat@@ 1
nation 1
nd 1
ned 1
neg@@ 1
negotiations 1
nel@@ 1
nerv@@ 1
nessler 1
nests 1
neur@@ 1
neville 1
newspaper 1
nh@@ 1
nia 1
nian 1
nick 1
nick@@ 1
nie 1
noble 1
normally 1
northwestward 1
notable 1
note 1
nouakchott 1
obj@@ 1
objection 1
observ@@ 1
occ@@ 1
occup@@ 1
occupation 1
occurr@@ 1
och@@ 1
ock@@ 1
odox 1
oe 1
ofelia 1
officially 1
og@@ 1
ogy 1
ois 1
ol 1
oli@@ 1
olin 1
olog@@ 1
ologies 1
ology 1
ols 1
olym@@ 1
om 1
ome 1
onal 1
onian 1
onto 1
ony 1
oo 1
oot 1
op 1
open@@ 1
opening 1
openly 1
operated 1
oph@@ 1
oppon@@ 1
opport@@ 1
oppos@@ 1
opposite 1
option 1
orated 1
oratorio 1
orchestral 1
orchestras 1
ordinary 1
orecep@@ 1
ores@@ 1
organism 1
ories 1
origin@@ 1
originates 1
orous 1
orship 1
osa 1
oscill@@ 1
osi 1
ot-@@ 1
otari@@ 1
oti@@ 1
oto 1
otte 1
otted 1
otype 1
ould 1
oun@@ 1
ounds 1
ourt 1
ously 1
outdoor 1
outs 1
ove 1
oven 1
ow 1
owa 1
own@@ 1
oy@@ 1
pac@@ 1
pacifist 1
pair 1
pak@@ 1
papua 1
paradise 1
parall@@ 1
parent 1
particip@@ 1
particul@@ 1
particular 1
particulate 1
pass 1
pass@@ 1
passeng@@ 1
path@@ 1
pathy 1
patri@@ 1
pay@@ 1
pear@@ 1
penc@@ 1
pend@@ 1
pepper 1
perce@@ 1
perhaps 1
perim@@ 1
perished 1
permission 1
person@@ 1
persons 1
pes 1
pes@@ 1
ph 1
phalia 1
phen@@ 1
pher@@ 1
phil@@ 1
philharm@@ 1
philosoph@@ 1
philosophy 1
phot@@ 1
photoreceptors 1
phr@@ 1
physicist 1
pian@@ 1
pil@@ 1
pion@@ 1
pipel@@ 1
pitts@@ 1
pk@@ 1
placement 1
plato 1
ples 1
plu@@ 1
plutoids 1
poli 1
policy 1
polis 1
pom@@ 1
poor@@ 1
popularity 1
por@@ 1
portable 1
portion 1
portra@@ 1
portrait 1
posted 1
potential 1
poverty 1
pow@@ 1
power@@ 1
powers 1
pped 1
pract@@ 1
pre-columbian 1
precipitation 1
precise 1
predominant 1
premi@@ 1
prepar@@ 1
presidential 1
prevented 1
previously 1
princip@@ 1
principal 1
print@@ 1
prior 1
procedure 1
processor 1
proclaimed 1
produce 1
producing 1
productions 1
professi@@ 1
programm@@ 1
programmed 1
progre@@ 1
progress 1
projects 1
prominent 1
promote 1
promoted 1
promotion 1
proportion 1
protected 1
provinc@@ 1
provinces 1
provis@@ 1
proxy 1
psal@@ 1
psychedelic 1
pu 1
pub@@ 1
publ@@ 1
publications 1
pur@@ 1
purchased 1
purple 1
pursuit 1
pygoscelis 1
pythis 1
qingzang 1
qnome 1
qu@@ 1
quadrants 1
qualifications 1
quality 1
quantity 1
quantized 1
quartz 1
queensland 1
quentin 1
questions 1
quiet 1
quinine 1
quis 1
qundi 1
ra@@ 1
raad 1
rac@@ 1
racehorse 1
rad 1
radiation 1
radius 1
rah 1
raham 1
raiders 1
railroads 1
railways 1
rainfall 1
rally 1
ram 1
ramming 1
ramonet 1
ran 1
ran@@ 1
random 1
randomly 1
rangers 1
ranging 1
ranks 1
ransom 1
rapidly 1
rard 1
rare 1
raspberry 1
rat 1
rates 1
rath 1
rathenow 1
ration 1
ratization 1
rats 1
rattle 1
rauss 1
ravenna 1
rawalpindi 1
ray 1
rays 1
razor 1
rd 1
re-@@ 1
re-exam@@ 1
read 1
read@@ 1
reade 1
reading 1
realises 1
realistic 1
realizations 1
realms 1
rear 1
reasons 1
reate 1
rebelled 1
rebellion 1
rebellions 1
rebuilt 1
rec@@ 1
recently 1
recognition 1
recognizes 1
recommended 1
recover 1
recover@@ 1
recreate 1
recruits 1
redskins 1
reduction 1
redwall 1
reeds 1
reef 1
reflect 1
reform 1
refuge 1
refugee 1
refugees 1
refuses 1
reggio 1
regional 1
register 1
registration 1
regulation 1
rehearsals 1
reich 1
reichenau 1
reichsführer-ss 1
reign 1
reigned 1
reinforced 1
rejected 1
reka 1
rel 1
relationships 1
relative 1
relatively 1
relativity 1
relay 1
reli@@ 1
relieving 1
religion 1
religions 1
relish 1
relocation 1
rels 1
rely 1
relying 1
remain 1
remake 1
rematch 1
remedios 1
remembrance 1
rement 1
rements 1
remer 1
remnants 1
removal 1
renalb 1
renaming 1
rendong 1
renewable 1
renewed 1
renovating 1
rent 1
rené 1
reorganization 1
repays 1
repe@@ 1
report 1
reports 1
represent 1
represent@@ 1
representations 1
representatives 1
represented 1
reproductive 1
reptiles 1
republican 1
republicans 1
reputation 1
requ@@ 1
requests 1
researcher 1
reserve 1
reserved 1
resi@@ 1
reside 1
residences 1
resignation 1
resinous 1
resists 1
resorts 1
resource 1
respiratory 1
respond 1
rested 1
restkreis 1
restore 1
results 1
resume 1
resumed 1
retali@@ 1
retention 1
retiring 1
returning 1
reuther 1
rev 1
reveal 1
revenge 1
review 1
reviewed 1
revived 1
revolt 1
revolutionary 1
revolutions 1
reward 1
rewood 1
reynolds 1
reznor 1
rhapsody 1
rhea 1
rhetoric 1
rhine-@@ 1
rhino 1
rhyno 1
rhys 1
ri 1
riage 1
rial 1
rica 1
rical 1
ricants 1
rice 1
rice-oxley 1
rices 1
rich 1
richardson 1
richthof@@ 1
ricul@@ 1
rider 1
ridge 1
ridophores 1
rielle 1
riemann 1
ries 1
riesa 1
rife 1
right-hand 1
rij-rousseau 1
rikos 1
rin 1
rina 1
ringside 1
rio 1
riot 1
ripe 1
riperton 1
rique 1
risks 1
rison 1
rister 1
ristobal 1
rit 1
ritchie 1
ritual 1
ritz 1
ritzwalk 1
rne 1
road@@ 1
roads 1
rob 1
roc 1
roc@@ 1
rocker 1
rocket 1
rockingham 1
roclus 1
rod 1
rod@@ 1
rode 1
rodham 1
rodia 1
rogen 1
rogers 1
rohito 1
roi 1
roid 1
rolf 1
roll 1
rollercoaster 1
rollins 1
romance 1
romanesque 1
romania 1
romo@@ 1
romulus 1
roof 1
roosa 1
roosevelt 1
roost 1
root 1
rore 1
rose 1
roskilde 1
rostock 1
rotting 1
roubaix 1
rouge 1
roughly 1
roundabout 1
rounded 1
rovers 1
rowan 1
rowling 1
rows 1
rowski 1
roxburghii 1
royalist 1
royalty-free 1
rpg-26 1
rss 1
rt 1
rtos 1
rubber 1
rubble 1
rubin 1
rudder 1
rude 1
rudrasimha 1
rue 1
rug 1
rugs 1
ruhr 1
rul@@ 1
rulers 1
rules 1
ruling 1
rum 1
rum@@ 1
runestones 1
rung 1
runs 1
rus 1
russo-turkish 1
ruthlessness 1
rwandan 1
rye 1
ryl 1
ryp@@ 1
ryption 1
régie 1
röbel 1
s-de-la-loire 1
saarbrücken 1
saarland 1
saber 1
sable 1
sabu 1
sac 1
sachs 1
sacraments 1
saddam 1
sadhana 1
sadomasochism 1
safer 1
saffron 1
saga 1
sahara 1
sahle 1
sahlin 1
saieff 1
saint-martin 1
saint-victoret 1
saint-étienne 1
saints 1
sakamoto 1
sal@@ 1
saladin 1
salamander 1
salt-trading 1
salvation 1
sam 1
samille 1
sample 1
sampled 1
samples 1
sanctity 1
sankt 1
santiago 1
santos 1
santísima 1
sapiens 1
sarandon 1
sarasvati 1
sarbhana 1
sarthe 1
satis 1
satluj 1
satrap 1
saturday 1
satyros 1
sauce 1
saugor 1
saur 1
saurs 1
saxony 1
sayer 1
sberg 1
sburg 1
scala 1
scale 1
scalpels 1
scandentia 1
scandinavian 1
scar 1
scar-atahualpa 1
scar@@ 1
scarborough 1
scenium 1
schalke 1
schatz 1
scheme 1
schemes 1
schidlof 1
schiff 1
schizophrenics 1
schleswig 1
schmidt 1
schneier 1
schock 1
schoenberg 1
scholar 1
scholarships 1
schubert 1
sciences 1
scientious 1
scores 1
scotia 1
screen 1
screenplay 1
screens 1
scribed 1
script 1
scription 1
scripts 1
scriptures 1
sculptor 1
sculptures 1
seals 1
searchable 1
seasonal 1
seasoning 1
seats 1
seconds 1
sections 1
secularism 1
secure 1
sedimentary 1
seed 1
seem 1
sees 1
sefini 1
segment 1
seidenstraße 1
seigneurial 1
seille 1
seized 1
seizures 1
sel 1
select 1
selects 1
selene 1
self 1
self-absorbed 1
self-asserting 1
self-contained 1
sells 1
sement 1
semif@@ 1
sen 1
sen@@ 1
senate 1
senators 1
senkirchen 1
sense 1
sensitive 1
sentenced 1
senthal 1
separ@@ 1
separable 1
sephora 1
sepied 1
sepolis 1
sequences 1
ser-based 1
sergeant 1
serials 1
sermon 1
serp@@ 1
serpent 1
servant 1
servers 1
servicepicasa 1
seshoe-shaped 1
session 1
sets 1
sett@@ 1
settled 1
settlement 1
seudonym 1
seva 1
seven-year 1
seventeen 1
seville 1
sewhere 1
seyss-inquart 1
sgt. 1
sh 1
sh@@ 1
shabab 1
shades 1
shadweep 1
shah 1
shakespearian 1
shalitoe 1
shamim 1
shanghai 1
shaolin 1
shaped 1
sharp 1
sharper 1
shatner 1
shaw 1
shears 1
sheep 1
sheffield 1
sherman 1
shewa 1
shey 1
shinachara 1
shingles 1
shinkansen 1
shino 1
shiva 1
shoe 1
shoes 1
shoki 1
shoot 1
shooter 1
shoots 1
shopping 1
short-hand 1
short@@ 1
shortened 1
shorter 1
shostakovitch 1
shots 1
shrine 1
shropshire 1
shrubs 1
shua 1
shurst 1
shusha 1
shut 1
shut@@ 1
shutt 1
shuttle 1
si 1
si@@ 1
sian 1
sickly 1
sided 1
siew 1
sifal 1
sight 1
sights 1
sign@@ 1
signatures 1
significance 1
significantly 1
sil@@ 1
silence 1
siliu 1
silly 1
similarities 1
similarity 1
simosthenurus 1
simplicity 1
simplon 1
simpson 1
simulation 1
simultaneous 1
sindh 1
sing@@ 1
singh 1
singles 1
singlet 1
sings 1
sinister 1
sinn 1
sion 1
sionic 1
sipim 1
siret 1
siritzky 1
sis 1
sistan 1
sister 1
sit 1
sitcom 1
situations 1
sivry-rance 1
sized 1
sizes 1
sj 1
sk 1
ska 1
skardu 1
skated 1
skater 1
skaya 1
ske 1
ski 1
skirts 1
skull 1
skytrain 1
slackware 1
slam 1
slang 1
slave-owner 1
slavement 1
slavery 1
slavic 1
slavonic 1
slayer 1
slice 1
slid 1
slides 1
slightly 1
slip 1
slot 1
slough 1
slow 1
slowly 1
smallville 1
sman 1
smart 1
smash 1
smbat 1
smithies 1
smithing 1
smo@@ 1
smoked 1
smooth 1
smouth 1
smuggling 1
smythe 1
snapped 1
snl 1
snowstorm 1
soak 1
soanian 1
soba 1
soccer 1
socratic 1
sofia 1
soft 1
softer 1
sohag 1
soil 1
soils 1
solano 1
soldier 1
solicited 1
soloists 1
solomon 1
solos 1
solothurn 1
solstice 1
solution 1
solve 1
solving 1
som@@ 1
someday 1
somerset 1
somme 1
somnia 1
sonabel 1
sonage 1
sonists 1
sonneberg 1
sony 1
soon 1
sopa 1
sophene 1
sophie 1
sorcerer 1
sorted 1
soundtrack 1
soups 1
sour@@ 1
souri 1
south-east 1
soya 1
soybean 1
soybeans 1
sp3 1
spacing 1
spain 1
span 1
spaniards 1
spanned 1
spans 1
spartans 1
speak 1
speaks 1
specialize 1
specialized 1
specials 1
specific 1
spectating 1
spector 1
spectrally 1
speed 1
spel 1
spelled 1
spelling 1
spells 1
spend 1
spewed 1
sphere 1
spherical 1
spices 1
spider 1
spielberg 1
spielhaus 1
spillway 1
spinosi 1
spiral 1
spiraling 1
spirit 1
spirits 1
spitz-type 1
spokesman 1
sponsor@@ 1
sponsored 1
sportswear 1
spot 1
spreading 1
spring 1
springer 1
springs 1
springville 1
sprinter 1
spurgeon 1
spurs 1
spy 1
square-cut 1
squid 1
sr. 1
sruhe 1
ssantenses 1
sse 1
sseau 1
ssed 1
sser 1
ssional 1
ssive 1
ssman 1
st-hardcore 1
st@@ 1
stable 1
stabs 1
stache-less 1
stacy 1
stadt 1
stadtroda 1
stafa 1
stag 1
stagnant 1
stal 1
stalin 1
stallman 1
stand-up 1
standardization 1
standards 1
stands 1
stanzo 1
star-catalog 1
starbird 1
starter 1
starting 1
starts 1
statehood 1
statement 1
statesmen 1
static 1
stationed 1
statue 1
statutes 1
stbite 1
steam 1
steep 1
stefan 1
stegosaurian 1
steiner 1
steinfurt 1
stellar 1
stephanie 1
sterdam 1
sternation 1
sterndale 1
stevenage 1
stevens 1
sthenurine 1
sthenurus 1
stice 1
sticks 1
stieler 1
stification 1
stigious 1
stimulate 1
stimulating 1
stimulus 1
stin 1
stina 1
stitch 1
stitution 1
stman 1
sto 1
stock 1
stockport 1
stoiber 1
stoke 1
stokowski 1
stomizer 1
stood 1
stopper 1
stops 1
stor 1
storage 1
storal 1
stores 1
storyline 1
storylines 1
stouts 1
stown 1
straightener 1
straits 1
strasburg 1
strations 1
straw 1
straße 1
strelitz 1
strengthened 1
strengths 1
stress 1
stressed 1
stri@@ 1
stries 1
strikers 1
strip 1
stripes 1
strokes 1
strong-willed 1
structural 1
struggled 1
struggles 1
studios 1
studying 1
studylight 1
stunner 1
sty@@ 1
stylus 1
styn 1
su 1
su@@ 1
subject 1
submarine 1
submerged 1
subscribers 1
subscription 1
substantial 1
substitute 1
subterranean 1
subunguis 1
succeeded 1
sudan 1
sudarium 1
suffering 1
suffers 1
suggestion 1
suite 1
suko 1
sulpice 1
sumatra 1
summary 1
sumoto 1
sums 1
sunflowers 1
suntzeff 1
sup@@ 1
super 1
super@@ 1
supercontinent 1
superiore 1
supermarket 1
supermarkets 1
supermassive 1
supernatural 1
superstar 1
superstars 1
superstition 1
supervolcano 1
supial 1
suppl@@ 1
supplemented 1
supply 1
supportive 1
suppos@@ 1
sur 1
sures 1
surf 1
surfaces 1
surgeon 1
surgeon-superintendent 1
surname 1
surpass 1
surprise 1
surrection 1
surround 1
surrounding 1
surveyors 1
survival 1
survived 1
surviving 1
survivors 1
susanna 1
sushila 1
suspect 1
suspend 1
suspense 1
sussex 1
sustained 1
sutlej 1
suvs 1
sw@@ 1
swagger 1
swald 1
swamp 1
swampy 1
swan 1
swana 1
swanger 1
sweatbands 1
sweeney 1
swerve 1
swift 1
swirls 1
switch 1
swords 1
swot 1
swri 1
syka 1
sylvanus 1
symmetric 1
sympathy 1
synchronized 1
systemic 1
t-@@ 1
t-mobile 1
t-shirt 1
t-shirts 1
t. 1
tabad 1
tackles 1
tagansko-krasnopresnenskaya 1
tagline 1
tague 1
tahitian 1
tail 1
tails 1
tains 1
tal-like 1
talents 1
talish 1
tall 1
tallaiya 1
tamanian 1
tamara 1
tambora 1
tampa 1
tane 1
tangere 1
tanning 1
tantric 1
tantrum 1
tanzania 1
tap 1
tapasya 1
tarantino 1
tarascon 1
targets 1
tarja 1
tarn 1
tarvos 1
tary 1
task 1
tasks 1
tasmania 1
tasmanian 1
taste 1
tations 1
tauran 1
tawa 1
tax 1
taxi 1
taxis 1
tay 1
tazzmission 1
td 1
tdl 1
te@@ 1
tea 1
tea@@ 1
teachings 1
technical 1
technician 1
technologies 1
tecklenburg 1
tedera 1
teenagers 1
teenth 1
teeth 1
tehsils 1
tel 1
telephone 1
teleport 1
templates 1
tempore 1
tended 1
tengwar 1
tennessee 1
tensions 1
tenth 1
tenzin 1
teotihuacan 1
ter@@ 1
teresa 1
terflies 1
termed 1
terminated 1
termination 1
terminus 1
tero 1
terror 1
terrorist 1
terrorists 1
tery 1
testament 1
tetrapods 1
text 1
tgebouw 1
th-hitchcock 1
th-largest 1
th-rebirth 1
tha 1
thalamocortical 1
thalassa 1
thar 1
thatch 1
theatrical 1
theim 1
themes 1
thenosphere 1
theology 1
theoret@@ 1
theoretical 1
thered 1
therefore 1
thermal 1
thermouth 1
thernmost 1
theseus 1
thet 1
thetic 1
theus 1
thew 1
thicker 1
thidine 1
thieves 1
thile 1
thinking 1
thinner 1
thirdly 1
thirteen 1
thirteenth 1
thirty 1
thirty-three 1
thma 1
thodox 1
tholins 1
thology 1
thome 1
thompson 1
thomson 1
thony 1
thosphere 1
thoughtful 1
thouse 1
thpiece 1
thplace 1
thread 1
threat 1
threatened 1
threats 1
three-octave 1
threepenny 1
threesome 1
thriller 1
thriving 1
throne 1
throw 1
throw@@ 1
thrym 1
thunderstorms 1
thuram 1
thurman 1
thursday 1
thyme 1
thymine 1
thyroidism 1
ti@@ 1
tially-native 1
tibooburra 1
ticellular 1
ticino 1
tics 1
ticultural 1
ticut 1
tids 1
tier 1
tierney 1
tificial 1
tiger 1
tigers 1
tight 1
tilayers 1
timeo 1
timers 1
timidation 1
timized 1
tin 1
tinger 1
tingham 1
tings 1
tints 1
tioned 1
tire 1
tirunelveli 1
tistan 1
titled 1
titles 1
titude 1
tiveness 1
tives 1
tj 1
tld 1
tlefish 1
tles 1
tlest 1
to-@@ 1
to-cab 1
to-novo 1
tobin 1
todd 1
toddler 1
toine 1
toivo 1
tokyo 1
tolerance 1
tolerant 1
tolkien 1
tollensesee 1
toller 1
tomatoes 1
tomb 1
ton@@ 1
tongue 1
tonia 1
tonnerre 1
tonwood 1
tony 1
tools 1
toon 1
top-level 1
topped 1
torate 1
torch 1
torenversammlung 1
torment 1
tors 1
tortu@@ 1
toscanini 1
tosine 1
totally 1
tou@@ 1
touch@@ 1
touchdown 1
touched 1
tourcoing 1
toured 1
tournaments 1
township 1
toyota 1
tpl 1
tr@@ 1
tra@@ 1
tracked 1
trading 1
tradition 1
traditions 1
trail 1
trained 1
training 1
traits 1
tram 1
tranmere 1
tranquilizers 1
transduction 1
transfection 1
transfer@@ 1
transformed 1
transforming 1
transient 1
transit 1
transitioned 1
transportation 1
travel 1
traverses 1
tray 1
trays 1
treat 1
treatable 1
treatment 1
treatments 1
trek 1
trench 1
trend 1
tresca 1
tresina 1
tress 1
trevor 1
triad 1
triangle 1
triangles 1
triangular 1
tribe 1
tributaries 1
tribute 1
trick 1
tridge 1
trincourt 1
trinidad 1
trinity 1
tripoli 1
trips 1
triton 1
triumph 1
trivium 1
trohman 1
trojan 1
troposodon 1
trust 1
try 1
tryside 1
tsentr 1
tuals 1
tuan 1
tube-based 1
tubes 1
tuileries 1
tulergi 1
tundra 1
tunisia 1
tunnel 1
tunnels 1
tupaiidae 1
tural 1
turbo 1
turin 1
turkestan 1
turkic 1
turkish 1
turkmenistan 1
turnes 1
turning 1
turo 1
turpin 1
tuvaluan 1
tv2 1
tw@@ 1
twelve 1
twentieth 1
twenty-two 1
twilight 1
twin 1
twofish 1
twright 1
tycoon 1
tyla 1
tyler 1
type@@ 1
typeface 1
typically 1
tyranny 1
tz 1
tzprung-russell 1
tzu 1
ua 1
uaig 1
ualties 1
uardia 1
uate 1
uations 1
ubino 1
ubs 1
ubuntu 1
ubünden 1
uceno 1
uchestan 1
uchida 1
uci 1
uciano 1
uck 1
ucky 1
ucn 1
ude 1
udger 1
ueckermünde 1
uefa 1
uel 1
uer 1
uet 1
uffydd 1
ufo 1
uhennna 1
uhin 1
uin 1
ulah 1
ular 1
ulations 1
ulco 1
uler 1
uli 1
ulic 1
ulty 1
ulusar 1
um-security 1
um@@ 1
uma 1
umatic 1
umberjack 1
umberland 1
umbl@@ 1
ument 1
umimyrskyssä 1
uminate 1
ummin 1
ummy 1
umnus 1
umping 1
ums 1
una 1
unable 1
unacceptable 1
unachal 1
unavailable 1
unavut 1
unaware 1
unbinding 1
uncertainty 1
unchy 1
uncle 1
und 1
undam@@ 1
undant 1
under@@ 1
underlying 1
underside 1
undity 1
undotted 1
undra 1
unearthed 1
unemployment 1
unfamiliar 1
unfold 1
ung 1
uniformed 1
unintentionally 1
uninterrupted 1
unions 1
unique 1
unite 1
unities 1
unius 1
unknown 1
unless 1
unlik@@ 1
unmingled 1
unna 1
unnoticed 1
unpipelined 1
unrelated 1
unstable 1
unted 1
untouched 1
up@@ 1
upland 1
uploaded 1
upper-level 1
urance 1
urartu 1
urgical 1
uries 1
urinary 1
uro 1
urquhart 1
urs 1
ursula 1
urysm 1
us@@ 1
usalem 1
ushimi 1
usicaä 1
uson 1
usque 1
ussi-ambeno 1
usucha 1
ut-shaped 1
ut@@ 1
utah 1
utes 1
uthausen 1
util@@ 1
uts 1
uture 1
ux 1
uxe 1
v. 1
va 1
vac@@ 1
vacuum 1
val 1
valais 1
valencia 1
valle@@ 1
values 1
valve 1
vampire 1
vanand 1
vanilla 1
vapor 1
vari@@ 1
variants 1
variations 1
vas 1
vate 1
vatican 1
vaud 1
vc 1
vedas 1
vegas 1
vegetables 1
veins 1
vel 1
veliest 1
velodrome 1
velour 1
velveteen 1
ven 1
venomous 1
ventilation 1
ventricles 1
ventricular 1
vents 1
ventura 1
venture 1
venules 1
venus 1
verage 1
verb 1
verbal 1
verde 1
verde-type 1
vergence 1
vergno 1
veries 1
veronica 1
verrier 1
verse 1
verses 1
versy 1
vertebrae 1
vertebrates 1
vertical 1
ves@@ 1
vessels 1
vest 1
vesta 1
veston 1
vetian 1
vezina 1
via 1
vian 1
vibr@@ 1
vibration 1
vibrato 1
vices 1
viciously 1
victorian 1
victory 1
vidal 1
vieques 1
viest 1
viewed 1
vii 1
vikidia 1
viking 1
vilja 1
villeneuve-loubet 1
vin 1
vince 1
vinism 1
vinton 1
violates 1
violence 1
violet 1
violin 1
virondo 1
virtually 1
vision 1
visually 1
vitreous 1
vitruvius 1
viva 1
vivaldi 1
vladimir 1
vm 1
vocabulary 1
vocal 1
vocalists 1
voiced 1
volcanoes 1
volokolamskaya 1
voltages 1
volumes 1
volunteer 1
vomiting 1
vorticity 1
voters 1
városi 1
växjö 1
w. 1
wa 1
waffen-ss 1
waheed 1
wahili 1
wahlenbergia 1
waimea 1
wait 1
waking 1
wakker 1
wald 1
walden 1
walks 1
wallace 1
walloon 1
walt 1
walter 1
wandsworth 1
wang 1
wantage 1
wants 1
wardi 1
wardrobe 1
wards 1
waren 1
warleader 1
warning 1
warnings 1
warrington 1
warriors 1
wars 1
wasawa 1
wasp 1
wassce 1
watauga 1
watch@@ 1
watchman 1
waterfall 1
watermelon 1
watermill 1
watonga 1
watson-crick 1
wattles 1
wavy 1
waxing 1
waynflete 1
wcw 1
wea@@ 1
weak 1
weaker 1
weakness 1
weaknesses 1
wealthy 1
wears 1
weathered 1
weaver 1
webbed 1
wedding 1
weed 1
week 1
weekly 1
wehrgeistige 1
wehrmacht 1
weigh 1
weighed 1
weiland 1
welcomes 1
well-crafted 1
well-known 1
wembley 1
wendel 1
wep 1
were-rabbit 1
werth 1
wes@@ 1
wesfarmers 1
westerbork 1
westminster 1
westphalia 1
westward 1
wetlands 1
wh@@ 1
whammy 1
wheel 1
wheelchair 1
whenever 1
whip 1
whisenhunt 1
whitbourne 1
whose 1
wich 1
wick 1
wicz 1
wide-@@ 1
widescreen 1
widor 1
wields 1
wien 1
wiic 1
wikia 1
wil@@ 1
wilbur 1
wilhelmina 1
wilia 1
will@@ 1
windhaven 1
windmill 1
wine 1
wishaw 1
wisterliebe 1
withdrew 1
wizard 1
wizardry 1
wlb-306 1
wok 1
wolgemut 1
wolk 1
wollstonecraft 1
wombat 1
wong 1
woodcut 1
woodford 1
woodland 1
woodrow 1
woods 1
woolf 1
woolshed 1
workbench 1
workstation 1
worn 1
worship@@ 1
worst 1
worthing 1
woven 1
wrecked 1
wrestled 1
wrestlemania 1
wrestlers 1
wrong 1
wtwo 1
wu 1
wycliffe 1
x-stream 1
x-type 1
xiliary 1
xon 1
xton 1
y-blue 1
ya@@ 1
yackandandah 1
yade 1
yan 1
yankees 1
yant 1
yarn 1
yatso 1
yazoo 1
ydia 1
ydor 1
yds 1
year-end 1
year-round 1
year@@ 1
yed 1
yehudi 1
yellowish-brown 1
yen 1
yer 1
yerful 1
ygen 1
yields 1
yl 1
ylan 1
yland 1
yle 1
ylphenidate 1
ylus 1
ylène 1
yman 1
ymion 1
ymium 1
ymnastics 1
yness 1
ynne 1
ynomial 1
yntz 1
ynx 1
yo-yo 1
yock 1
yoko 1
yone 1
yor@@ 1
yorkshire 1
yourself 1
youth 1
ypal 1
ypse 1
yptographic 1
yrus 1
yscus 1
yssey 1
yst 1
yton 1
ytterbium 1
yun 1
yvette 1
zac 1
zadok 1
zaiten 1
zajtich 1
zalewski 1
zann 1
zapper 1
zburg 1
zealand 1
zed 1
zelius 1
zelman 1
zenvorstadt 1
zerum 1
zes 1
zeta 1
zeus 1
zgebirge 1
zhengzhou 1
zipingpu 1
zoar 1
zollern 1
zones 1
zoo 1
zoom 1
zorawar 1
zos 1
zoutleeuw 1
zschopau 1
zub 1
zur 1
zy 1
zzo 1
zürich 1
£ 1
± 1
ß 1
ßenhain 1
ández 1
âteau 1
ärki 1
èche 1
ée 1
éin 1
éla 1
éon 1
épartement 1
épendants 1
ía 1
ña 1
ò 1
ólafur 1
östergötland 1
ørk 1
ühn 1
ürk 1
— 1
‘ 1
“ 1
” 1
madeupword0000 0
